{
  "version": "1.0",
  "truncation": null,
  "padding": null,
  "added_tokens": [
    {
      "id": 0,
      "content": "<|pad|>",
      "single_word": false,
      "lstrip": false,
      "rstrip": false,
      "normalized": false,
      "special": true
    },
    {
      "id": 1,
      "content": "<|separator|>",
      "single_word": false,
      "lstrip": false,
      "rstrip": false,
      "normalized": false,
      "special": true
    },
    {
      "id": 2,
      "content": "<|eos|>",
      "single_word": false,
      "lstrip": false,
      "rstrip": false,
      "normalized": false,
      "special": true
    },
    {
      "id": 3,
      "content": "<|control1|>",
      "single_word": false,
      "lstrip": false,
      "rstrip": false,
      "normalized": false,
      "special": true
    },
    {
      "id": 4,
      "content": "<|control2|>",
      "single_word": false,
      "lstrip": false,
      "rstrip": false,
      "normalized": false,
      "special": true
    },
    {
      "id": 5,
      "content": "<|control3|>",
      "single_word": false,
      "lstrip": false,
      "rstrip": false,
      "normalized": false,
      "special": true
    },
    {
      "id": 6,
      "content": "<|control4|>",
      "single_word": false,
      "lstrip": false,
      "rstrip": false,
      "normalized": false,
      "special": true
    },
    {
      "id": 7,
      "content": "<|control5|>",
      "single_word": false,
      "lstrip": false,
      "rstrip": false,
      "normalized": false,
      "special": true
    },
    {
      "id": 8,
      "content": "<|control6|>",
      "single_word": false,
      "lstrip": false,
      "rstrip": false,
      "normalized": false,
      "special": true
    },
    {
      "id": 9,
      "content": "<|control7|>",
      "single_word": false,
      "lstrip": false,
      "rstrip": false,
      "normalized": false,
      "special": true
    },
    {
      "id": 10,
      "content": "<|control8|>",
      "single_word": false,
      "lstrip": false,
      "rstrip": false,
      "normalized": false,
      "special": true
    },
    {
      "id": 11,
      "content": "<|control9|>",
      "single_word": false,
      "lstrip": false,
      "rstrip": false,
      "normalized": false,
      "special": true
    },
    {
      "id": 12,
      "content": "<|control10|>",
      "single_word": false,
      "lstrip": false,
      "rstrip": false,
      "normalized": false,
      "special": true
    },
    {
      "id": 13,
      "content": "<|control11|>",
      "single_word": false,
      "lstrip": false,
      "rstrip": false,
      "normalized": false,
      "special": true
    },
    {
      "id": 14,
      "content": "<|control12|>",
      "single_word": false,
      "lstrip": false,
      "rstrip": false,
      "normalized": false,
      "special": true
    },
    {
      "id": 15,
      "content": "<|control13|>",
      "single_word": false,
      "lstrip": false,
      "rstrip": false,
      "normalized": false,
      "special": true
    },
    {
      "id": 16,
      "content": "<|control14|>",
      "single_word": false,
      "lstrip": false,
      "rstrip": false,
      "normalized": false,
      "special": true
    },
    {
      "id": 17,
      "content": "<|control15|>",
      "single_word": false,
      "lstrip": false,
      "rstrip": false,
      "normalized": false,
      "special": true
    },
    {
      "id": 18,
      "content": "<|control16|>",
      "single_word": false,
      "lstrip": false,
      "rstrip": false,
      "normalized": false,
      "special": true
    },
    {
      "id": 19,
      "content": "<|control17|>",
      "single_word": false,
      "lstrip": false,
      "rstrip": false,
      "normalized": false,
      "special": true
    },
    {
      "id": 20,
      "content": "<|control18|>",
      "single_word": false,
      "lstrip": false,
      "rstrip": false,
      "normalized": false,
      "special": true
    },
    {
      "id": 21,
      "content": "<|control19|>",
      "single_word": false,
      "lstrip": false,
      "rstrip": false,
      "normalized": false,
      "special": true
    },
    {
      "id": 22,
      "content": "<|control20|>",
      "single_word": false,
      "lstrip": false,
      "rstrip": false,
      "normalized": false,
      "special": true
    },
    {
      "id": 23,
      "content": "<|control21|>",
      "single_word": false,
      "lstrip": false,
      "rstrip": false,
      "normalized": false,
      "special": true
    },
    {
      "id": 24,
      "content": "<|control22|>",
      "single_word": false,
      "lstrip": false,
      "rstrip": false,
      "normalized": false,
      "special": true
    },
    {
      "id": 25,
      "content": "<|control23|>",
      "single_word": false,
      "lstrip": false,
      "rstrip": false,
      "normalized": false,
      "special": true
    },
    {
      "id": 26,
      "content": "<|control24|>",
      "single_word": false,
      "lstrip": false,
      "rstrip": false,
      "normalized": false,
      "special": true
    },
    {
      "id": 27,
      "content": "<|control25|>",
      "single_word": false,
      "lstrip": false,
      "rstrip": false,
      "normalized": false,
      "special": true
    },
    {
      "id": 28,
      "content": "<|control26|>",
      "single_word": false,
      "lstrip": false,
      "rstrip": false,
      "normalized": false,
      "special": true
    },
    {
      "id": 29,
      "content": "<|control27|>",
      "single_word": false,
      "lstrip": false,
      "rstrip": false,
      "normalized": false,
      "special": true
    },
    {
      "id": 30,
      "content": "<|control28|>",
      "single_word": false,
      "lstrip": false,
      "rstrip": false,
      "normalized": false,
      "special": true
    },
    {
      "id": 31,
      "content": "<|control29|>",
      "single_word": false,
      "lstrip": false,
      "rstrip": false,
      "normalized": false,
      "special": true
    },
    {
      "id": 32,
      "content": "<|control30|>",
      "single_word": false,
      "lstrip": false,
      "rstrip": false,
      "normalized": false,
      "special": true
    },
    {
      "id": 33,
      "content": "<|control31|>",
      "single_word": false,
      "lstrip": false,
      "rstrip": false,
      "normalized": false,
      "special": true
    },
    {
      "id": 34,
      "content": "<|control32|>",
      "single_word": false,
      "lstrip": false,
      "rstrip": false,
      "normalized": false,
      "special": true
    },
    {
      "id": 35,
      "content": "<|control33|>",
      "single_word": false,
      "lstrip": false,
      "rstrip": false,
      "normalized": false,
      "special": true
    },
    {
      "id": 36,
      "content": "<|control34|>",
      "single_word": false,
      "lstrip": false,
      "rstrip": false,
      "normalized": false,
      "special": true
    },
    {
      "id": 37,
      "content": "<|control35|>",
      "single_word": false,
      "lstrip": false,
      "rstrip": false,
      "normalized": false,
      "special": true
    },
    {
      "id": 38,
      "content": "<|control36|>",
      "single_word": false,
      "lstrip": false,
      "rstrip": false,
      "normalized": false,
      "special": true
    },
    {
      "id": 39,
      "content": "<|control37|>",
      "single_word": false,
      "lstrip": false,
      "rstrip": false,
      "normalized": false,
      "special": true
    },
    {
      "id": 40,
      "content": "<|control38|>",
      "single_word": false,
      "lstrip": false,
      "rstrip": false,
      "normalized": false,
      "special": true
    },
    {
      "id": 41,
      "content": "<|control39|>",
      "single_word": false,
      "lstrip": false,
      "rstrip": false,
      "normalized": false,
      "special": true
    },
    {
      "id": 42,
      "content": "<|control40|>",
      "single_word": false,
      "lstrip": false,
      "rstrip": false,
      "normalized": false,
      "special": true
    },
    {
      "id": 43,
      "content": "<|control41|>",
      "single_word": false,
      "lstrip": false,
      "rstrip": false,
      "normalized": false,
      "special": true
    },
    {
      "id": 44,
      "content": "<|control42|>",
      "single_word": false,
      "lstrip": false,
      "rstrip": false,
      "normalized": false,
      "special": true
    },
    {
      "id": 45,
      "content": "<|control43|>",
      "single_word": false,
      "lstrip": false,
      "rstrip": false,
      "normalized": false,
      "special": true
    },
    {
      "id": 46,
      "content": "<|control44|>",
      "single_word": false,
      "lstrip": false,
      "rstrip": false,
      "normalized": false,
      "special": true
    },
    {
      "id": 47,
      "content": "<|control45|>",
      "single_word": false,
      "lstrip": false,
      "rstrip": false,
      "normalized": false,
      "special": true
    },
    {
      "id": 48,
      "content": "<|control46|>",
      "single_word": false,
      "lstrip": false,
      "rstrip": false,
      "normalized": false,
      "special": true
    },
    {
      "id": 49,
      "content": "<|control47|>",
      "single_word": false,
      "lstrip": false,
      "rstrip": false,
      "normalized": false,
      "special": true
    },
    {
      "id": 50,
      "content": "<|control48|>",
      "single_word": false,
      "lstrip": false,
      "rstrip": false,
      "normalized": false,
      "special": true
    },
    {
      "id": 51,
      "content": "<|control49|>",
      "single_word": false,
      "lstrip": false,
      "rstrip": false,
      "normalized": false,
      "special": true
    },
    {
      "id": 52,
      "content": "<|control50|>",
      "single_word": false,
      "lstrip": false,
      "rstrip": false,
      "normalized": false,
      "special": true
    },
    {
      "id": 53,
      "content": "<|control51|>",
      "single_word": false,
      "lstrip": false,
      "rstrip": false,
      "normalized": false,
      "special": true
    },
    {
      "id": 54,
      "content": "<|control52|>",
      "single_word": false,
      "lstrip": false,
      "rstrip": false,
      "normalized": false,
      "special": true
    },
    {
      "id": 55,
      "content": "<|control53|>",
      "single_word": false,
      "lstrip": false,
      "rstrip": false,
      "normalized": false,
      "special": true
    },
    {
      "id": 56,
      "content": "<|control54|>",
      "single_word": false,
      "lstrip": false,
      "rstrip": false,
      "normalized": false,
      "special": true
    },
    {
      "id": 57,
      "content": "<|control55|>",
      "single_word": false,
      "lstrip": false,
      "rstrip": false,
      "normalized": false,
      "special": true
    },
    {
      "id": 58,
      "content": "<|control56|>",
      "single_word": false,
      "lstrip": false,
      "rstrip": false,
      "normalized": false,
      "special": true
    },
    {
      "id": 59,
      "content": "<|control57|>",
      "single_word": false,
      "lstrip": false,
      "rstrip": false,
      "normalized": false,
      "special": true
    },
    {
      "id": 60,
      "content": "<|control58|>",
      "single_word": false,
      "lstrip": false,
      "rstrip": false,
      "normalized": false,
      "special": true
    },
    {
      "id": 61,
      "content": "<|control59|>",
      "single_word": false,
      "lstrip": false,
      "rstrip": false,
      "normalized": false,
      "special": true
    },
    {
      "id": 62,
      "content": "<|control60|>",
      "single_word": false,
      "lstrip": false,
      "rstrip": false,
      "normalized": false,
      "special": true
    },
    {
      "id": 63,
      "content": "<|control61|>",
      "single_word": false,
      "lstrip": false,
      "rstrip": false,
      "normalized": false,
      "special": true
    },
    {
      "id": 64,
      "content": "<|control62|>",
      "single_word": false,
      "lstrip": false,
      "rstrip": false,
      "normalized": false,
      "special": true
    },
    {
      "id": 65,
      "content": "<|control63|>",
      "single_word": false,
      "lstrip": false,
      "rstrip": false,
      "normalized": false,
      "special": true
    },
    {
      "id": 66,
      "content": "<|control64|>",
      "single_word": false,
      "lstrip": false,
      "rstrip": false,
      "normalized": false,
      "special": true
    },
    {
      "id": 67,
      "content": "<|control65|>",
      "single_word": false,
      "lstrip": false,
      "rstrip": false,
      "normalized": false,
      "special": true
    },
    {
      "id": 68,
      "content": "<|control66|>",
      "single_word": false,
      "lstrip": false,
      "rstrip": false,
      "normalized": false,
      "special": true
    },
    {
      "id": 69,
      "content": "<|control67|>",
      "single_word": false,
      "lstrip": false,
      "rstrip": false,
      "normalized": false,
      "special": true
    },
    {
      "id": 70,
      "content": "<|control68|>",
      "single_word": false,
      "lstrip": false,
      "rstrip": false,
      "normalized": false,
      "special": true
    },
    {
      "id": 71,
      "content": "<|control69|>",
      "single_word": false,
      "lstrip": false,
      "rstrip": false,
      "normalized": false,
      "special": true
    },
    {
      "id": 72,
      "content": "<|control70|>",
      "single_word": false,
      "lstrip": false,
      "rstrip": false,
      "normalized": false,
      "special": true
    },
    {
      "id": 73,
      "content": "<|control71|>",
      "single_word": false,
      "lstrip": false,
      "rstrip": false,
      "normalized": false,
      "special": true
    },
    {
      "id": 74,
      "content": "<|control72|>",
      "single_word": false,
      "lstrip": false,
      "rstrip": false,
      "normalized": false,
      "special": true
    },
    {
      "id": 75,
      "content": "<|control73|>",
      "single_word": false,
      "lstrip": false,
      "rstrip": false,
      "normalized": false,
      "special": true
    },
    {
      "id": 76,
      "content": "<|control74|>",
      "single_word": false,
      "lstrip": false,
      "rstrip": false,
      "normalized": false,
      "special": true
    },
    {
      "id": 77,
      "content": "<|control75|>",
      "single_word": false,
      "lstrip": false,
      "rstrip": false,
      "normalized": false,
      "special": true
    },
    {
      "id": 78,
      "content": "<|control76|>",
      "single_word": false,
      "lstrip": false,
      "rstrip": false,
      "normalized": false,
      "special": true
    },
    {
      "id": 79,
      "content": "<|control77|>",
      "single_word": false,
      "lstrip": false,
      "rstrip": false,
      "normalized": false,
      "special": true
    },
    {
      "id": 80,
      "content": "<|control78|>",
      "single_word": false,
      "lstrip": false,
      "rstrip": false,
      "normalized": false,
      "special": true
    },
    {
      "id": 81,
      "content": "<|control79|>",
      "single_word": false,
      "lstrip": false,
      "rstrip": false,
      "normalized": false,
      "special": true
    },
    {
      "id": 82,
      "content": "<|control80|>",
      "single_word": false,
      "lstrip": false,
      "rstrip": false,
      "normalized": false,
      "special": true
    },
    {
      "id": 83,
      "content": "<|control81|>",
      "single_word": false,
      "lstrip": false,
      "rstrip": false,
      "normalized": false,
      "special": true
    },
    {
      "id": 84,
      "content": "<|control82|>",
      "single_word": false,
      "lstrip": false,
      "rstrip": false,
      "normalized": false,
      "special": true
    },
    {
      "id": 85,
      "content": "<|control83|>",
      "single_word": false,
      "lstrip": false,
      "rstrip": false,
      "normalized": false,
      "special": true
    },
    {
      "id": 86,
      "content": "<|control84|>",
      "single_word": false,
      "lstrip": false,
      "rstrip": false,
      "normalized": false,
      "special": true
    },
    {
      "id": 87,
      "content": "<|control85|>",
      "single_word": false,
      "lstrip": false,
      "rstrip": false,
      "normalized": false,
      "special": true
    },
    {
      "id": 88,
      "content": "<|control86|>",
      "single_word": false,
      "lstrip": false,
      "rstrip": false,
      "normalized": false,
      "special": true
    },
    {
      "id": 89,
      "content": "<|control87|>",
      "single_word": false,
      "lstrip": false,
      "rstrip": false,
      "normalized": false,
      "special": true
    },
    {
      "id": 90,
      "content": "<|control88|>",
      "single_word": false,
      "lstrip": false,
      "rstrip": false,
      "normalized": false,
      "special": true
    },
    {
      "id": 91,
      "content": "<|control89|>",
      "single_word": false,
      "lstrip": false,
      "rstrip": false,
      "normalized": false,
      "special": true
    },
    {
      "id": 92,
      "content": "<|control90|>",
      "single_word": false,
      "lstrip": false,
      "rstrip": false,
      "normalized": false,
      "special": true
    },
    {
      "id": 93,
      "content": "<|control91|>",
      "single_word": false,
      "lstrip": false,
      "rstrip": false,
      "normalized": false,
      "special": true
    },
    {
      "id": 94,
      "content": "<|control92|>",
      "single_word": false,
      "lstrip": false,
      "rstrip": false,
      "normalized": false,
      "special": true
    },
    {
      "id": 95,
      "content": "<|control93|>",
      "single_word": false,
      "lstrip": false,
      "rstrip": false,
      "normalized": false,
      "special": true
    },
    {
      "id": 96,
      "content": "<|control94|>",
      "single_word": false,
      "lstrip": false,
      "rstrip": false,
      "normalized": false,
      "special": true
    },
    {
      "id": 97,
      "content": "<|control95|>",
      "single_word": false,
      "lstrip": false,
      "rstrip": false,
      "normalized": false,
      "special": true
    },
    {
      "id": 98,
      "content": "<|control96|>",
      "single_word": false,
      "lstrip": false,
      "rstrip": false,
      "normalized": false,
      "special": true
    },
    {
      "id": 99,
      "content": "<|control97|>",
      "single_word": false,
      "lstrip": false,
      "rstrip": false,
      "normalized": false,
      "special": true
    },
    {
      "id": 100,
      "content": "<|control98|>",
      "single_word": false,
      "lstrip": false,
      "rstrip": false,
      "normalized": false,
      "special": true
    },
    {
      "id": 101,
      "content": "<|control99|>",
      "single_word": false,
      "lstrip": false,
      "rstrip": false,
      "normalized": false,
      "special": true
    },
    {
      "id": 102,
      "content": "<|control100|>",
      "single_word": false,
      "lstrip": false,
      "rstrip": false,
      "normalized": false,
      "special": true
    },
    {
      "id": 103,
      "content": "<|control101|>",
      "single_word": false,
      "lstrip": false,
      "rstrip": false,
      "normalized": false,
      "special": true
    },
    {
      "id": 104,
      "content": "<|control102|>",
      "single_word": false,
      "lstrip": false,
      "rstrip": false,
      "normalized": false,
      "special": true
    },
    {
      "id": 105,
      "content": "<|control103|>",
      "single_word": false,
      "lstrip": false,
      "rstrip": false,
      "normalized": false,
      "special": true
    },
    {
      "id": 106,
      "content": "<|control104|>",
      "single_word": false,
      "lstrip": false,
      "rstrip": false,
      "normalized": false,
      "special": true
    },
    {
      "id": 107,
      "content": "<|control105|>",
      "single_word": false,
      "lstrip": false,
      "rstrip": false,
      "normalized": false,
      "special": true
    },
    {
      "id": 108,
      "content": "<|control106|>",
      "single_word": false,
      "lstrip": false,
      "rstrip": false,
      "normalized": false,
      "special": true
    },
    {
      "id": 109,
      "content": "<|control107|>",
      "single_word": false,
      "lstrip": false,
      "rstrip": false,
      "normalized": false,
      "special": true
    },
    {
      "id": 110,
      "content": "<|control108|>",
      "single_word": false,
      "lstrip": false,
      "rstrip": false,
      "normalized": false,
      "special": true
    },
    {
      "id": 111,
      "content": "<|control109|>",
      "single_word": false,
      "lstrip": false,
      "rstrip": false,
      "normalized": false,
      "special": true
    },
    {
      "id": 112,
      "content": "<|control110|>",
      "single_word": false,
      "lstrip": false,
      "rstrip": false,
      "normalized": false,
      "special": true
    },
    {
      "id": 113,
      "content": "<|control111|>",
      "single_word": false,
      "lstrip": false,
      "rstrip": false,
      "normalized": false,
      "special": true
    },
    {
      "id": 114,
      "content": "<|control112|>",
      "single_word": false,
      "lstrip": false,
      "rstrip": false,
      "normalized": false,
      "special": true
    },
    {
      "id": 115,
      "content": "<|control113|>",
      "single_word": false,
      "lstrip": false,
      "rstrip": false,
      "normalized": false,
      "special": true
    },
    {
      "id": 116,
      "content": "<|control114|>",
      "single_word": false,
      "lstrip": false,
      "rstrip": false,
      "normalized": false,
      "special": true
    },
    {
      "id": 117,
      "content": "<|control115|>",
      "single_word": false,
      "lstrip": false,
      "rstrip": false,
      "normalized": false,
      "special": true
    },
    {
      "id": 118,
      "content": "<|control116|>",
      "single_word": false,
      "lstrip": false,
      "rstrip": false,
      "normalized": false,
      "special": true
    },
    {
      "id": 119,
      "content": "<|control117|>",
      "single_word": false,
      "lstrip": false,
      "rstrip": false,
      "normalized": false,
      "special": true
    },
    {
      "id": 120,
      "content": "<|control118|>",
      "single_word": false,
      "lstrip": false,
      "rstrip": false,
      "normalized": false,
      "special": true
    },
    {
      "id": 121,
      "content": "<|control119|>",
      "single_word": false,
      "lstrip": false,
      "rstrip": false,
      "normalized": false,
      "special": true
    },
    {
      "id": 122,
      "content": "<|control120|>",
      "single_word": false,
      "lstrip": false,
      "rstrip": false,
      "normalized": false,
      "special": true
    },
    {
      "id": 123,
      "content": "<|control121|>",
      "single_word": false,
      "lstrip": false,
      "rstrip": false,
      "normalized": false,
      "special": true
    },
    {
      "id": 124,
      "content": "<|control122|>",
      "single_word": false,
      "lstrip": false,
      "rstrip": false,
      "normalized": false,
      "special": true
    },
    {
      "id": 125,
      "content": "<|control123|>",
      "single_word": false,
      "lstrip": false,
      "rstrip": false,
      "normalized": false,
      "special": true
    },
    {
      "id": 126,
      "content": "<|control124|>",
      "single_word": false,
      "lstrip": false,
      "rstrip": false,
      "normalized": false,
      "special": true
    },
    {
      "id": 127,
      "content": "<|control125|>",
      "single_word": false,
      "lstrip": false,
      "rstrip": false,
      "normalized": false,
      "special": true
    }
  ],
  "normalizer": null,
  "pre_tokenizer": {
    "type": "Sequence",
    "pretokenizers": [
      {
        "type": "Split",
        "pattern": {
          "Regex": "(?i:'s|'t|'re|'ve|'m|'ll|'d)|[^\\r\\n\\p{L}\\p{N}]?\\p{L}+|\\p{N}| ?[^\\s\\p{L}\\p{N}]+[\\r\\n]*|\\s*[\\r\\n]+|\\s+(?!\\S)|\\s+"
        },
        "behavior": "Isolated",
        "invert": false
      },
      {
        "type": "ByteLevel",
        "add_prefix_space": false,
        "trim_offsets": true,
        "use_regex": false
      }
    ]
  },
  "post_processor": {
    "type": "ByteLevel",
    "add_prefix_space": true,
    "trim_offsets": false,
    "use_regex": true
  },
  "decoder": {
    "type": "ByteLevel",
    "add_prefix_space": true,
    "trim_offsets": true,
    "use_regex": true
  },
  "model": {
    "type": "BPE",
    "dropout": null,
    "unk_token": null,
    "continuing_subword_prefix": null,
    "end_of_word_suffix": null,
    "fuse_unk": false,
    "byte_fallback": false,
    "ignore_merges": true,
    "vocab": {
      "<|pad|>": 0,
      "<|separator|>": 1,
      "<|eos|>": 2,
      "<|control1|>": 3,
      "<|control2|>": 4,
      "<|control3|>": 5,
      "<|control4|>": 6,
      "<|control5|>": 7,
      "<|control6|>": 8,
      "<|control7|>": 9,
      "<|control8|>": 10,
      "<|control9|>": 11,
      "<|control10|>": 12,
      "<|control11|>": 13,
      "<|control12|>": 14,
      "<|control13|>": 15,
      "<|control14|>": 16,
      "<|control15|>": 17,
      "<|control16|>": 18,
      "<|control17|>": 19,
      "<|control18|>": 20,
      "<|control19|>": 21,
      "<|control20|>": 22,
      "<|control21|>": 23,
      "<|control22|>": 24,
      "<|control23|>": 25,
      "<|control24|>": 26,
      "<|control25|>": 27,
      "<|control26|>": 28,
      "<|control27|>": 29,
      "<|control28|>": 30,
      "<|control29|>": 31,
      "<|control30|>": 32,
      "<|control31|>": 33,
      "<|control32|>": 34,
      "<|control33|>": 35,
      "<|control34|>": 36,
      "<|control35|>": 37,
      "<|control36|>": 38,
      "<|control37|>": 39,
      "<|control38|>": 40,
      "<|control39|>": 41,
      "<|control40|>": 42,
      "<|control41|>": 43,
      "<|control42|>": 44,
      "<|control43|>": 45,
      "<|control44|>": 46,
      "<|control45|>": 47,
      "<|control46|>": 48,
      "<|control47|>": 49,
      "<|control48|>": 50,
      "<|control49|>": 51,
      "<|control50|>": 52,
      "<|control51|>": 53,
      "<|control52|>": 54,
      "<|control53|>": 55,
      "<|control54|>": 56,
      "<|control55|>": 57,
      "<|control56|>": 58,
      "<|control57|>": 59,
      "<|control58|>": 60,
      "<|control59|>": 61,
      "<|control60|>": 62,
      "<|control61|>": 63,
      "<|control62|>": 64,
      "<|control63|>": 65,
      "<|control64|>": 66,
      "<|control65|>": 67,
      "<|control66|>": 68,
      "<|control67|>": 69,
      "<|control68|>": 70,
      "<|control69|>": 71,
      "<|control70|>": 72,
      "<|control71|>": 73,
      "<|control72|>": 74,
      "<|control73|>": 75,
      "<|control74|>": 76,
      "<|control75|>": 77,
      "<|control76|>": 78,
      "<|control77|>": 79,
      "<|control78|>": 80,
      "<|control79|>": 81,
      "<|control80|>": 82,
      "<|control81|>": 83,
      "<|control82|>": 84,
      "<|control83|>": 85,
      "<|control84|>": 86,
      "<|control85|>": 87,
      "<|control86|>": 88,
      "<|control87|>": 89,
      "<|control88|>": 90,
      "<|control89|>": 91,
      "<|control90|>": 92,
      "<|control91|>": 93,
      "<|control92|>": 94,
      "<|control93|>": 95,
      "<|control94|>": 96,
      "<|control95|>": 97,
      "<|control96|>": 98,
      "<|control97|>": 99,
      "<|control98|>": 100,
      "<|control99|>": 101,
      "<|control100|>": 102,
      "<|control101|>": 103,
      "<|control102|>": 104,
      "<|control103|>": 105,
      "<|control104|>": 106,
      "<|control105|>": 107,
      "<|control106|>": 108,
      "<|control107|>": 109,
      "<|control108|>": 110,
      "<|control109|>": 111,
      "<|control110|>": 112,
      "<|control111|>": 113,
      "<|control112|>": 114,
      "<|control113|>": 115,
      "<|control114|>": 116,
      "<|control115|>": 117,
      "<|control116|>": 118,
      "<|control117|>": 119,
      "<|control118|>": 120,
      "<|control119|>": 121,
      "<|control120|>": 122,
      "<|control121|>": 123,
      "<|control122|>": 124,
      "<|control123|>": 125,
      "<|control124|>": 126,
      "<|control125|>": 127,
      "Ā": 128,
      "ā": 129,
      "Ă": 130,
      "ă": 131,
      "Ą": 132,
      "ą": 133,
      "Ć": 134,
      "ć": 135,
      "Ĉ": 136,
      "ĉ": 137,
      "Ċ": 138,
      "ċ": 139,
      "Č": 140,
      "č": 141,
      "Ď": 142,
      "ď": 143,
      "Đ": 144,
      "đ": 145,
      "Ē": 146,
      "ē": 147,
      "Ĕ": 148,
      "ĕ": 149,
      "Ė": 150,
      "ė": 151,
      "Ę": 152,
      "ę": 153,
      "Ě": 154,
      "ě": 155,
      "Ĝ": 156,
      "ĝ": 157,
      "Ğ": 158,
      "ğ": 159,
      "Ġ": 160,
      "!": 161,
      "\"": 162,
      "#": 163,
      "$": 164,
      "%": 165,
      "&": 166,
      "'": 167,
      "(": 168,
      ")": 169,
      "*": 170,
      "+": 171,
      ",": 172,
      "-": 173,
      ".": 174,
      "/": 175,
      "0": 176,
      "1": 177,
      "2": 178,
      "3": 179,
      "4": 180,
      "5": 181,
      "6": 182,
      "7": 183,
      "8": 184,
      "9": 185,
      ":": 186,
      ";": 187,
      "<": 188,
      "=": 189,
      ">": 190,
      "?": 191,
      "@": 192,
      "A": 193,
      "B": 194,
      "C": 195,
      "D": 196,
      "E": 197,
      "F": 198,
      "G": 199,
      "H": 200,
      "I": 201,
      "J": 202,
      "K": 203,
      "L": 204,
      "M": 205,
      "N": 206,
      "O": 207,
      "P": 208,
      "Q": 209,
      "R": 210,
      "S": 211,
      "T": 212,
      "U": 213,
      "V": 214,
      "W": 215,
      "X": 216,
      "Y": 217,
      "Z": 218,
      "[": 219,
      "\\": 220,
      "]": 221,
      "^": 222,
      "_": 223,
      "`": 224,
      "a": 225,
      "b": 226,
      "c": 227,
      "d": 228,
      "e": 229,
      "f": 230,
      "g": 231,
      "h": 232,
      "i": 233,
      "j": 234,
      "k": 235,
      "l": 236,
      "m": 237,
      "n": 238,
      "o": 239,
      "p": 240,
      "q": 241,
      "r": 242,
      "s": 243,
      "t": 244,
      "u": 245,
      "v": 246,
      "w": 247,
      "x": 248,
      "y": 249,
      "z": 250,
      "{": 251,
      "|": 252,
      "}": 253,
      "~": 254,
      "ġ": 255,
      "Ģ": 256,
      "ģ": 257,
      "Ĥ": 258,
      "ĥ": 259,
      "Ħ": 260,
      "ħ": 261,
      "Ĩ": 262,
      "ĩ": 263,
      "Ī": 264,
      "ī": 265,
      "Ĭ": 266,
      "ĭ": 267,
      "Į": 268,
      "į": 269,
      "İ": 270,
      "ı": 271,
      "Ĳ": 272,
      "ĳ": 273,
      "Ĵ": 274,
      "ĵ": 275,
      "Ķ": 276,
      "ķ": 277,
      "ĸ": 278,
      "Ĺ": 279,
      "ĺ": 280,
      "Ļ": 281,
      "ļ": 282,
      "Ľ": 283,
      "ľ": 284,
      "Ŀ": 285,
      "ŀ": 286,
      "Ł": 287,
      "ł": 288,
      "¡": 289,
      "¢": 290,
      "£": 291,
      "¤": 292,
      "¥": 293,
      "¦": 294,
      "§": 295,
      "¨": 296,
      "©": 297,
      "ª": 298,
      "«": 299,
      "¬": 300,
      "Ń": 301,
      "®": 302,
      "¯": 303,
      "°": 304,
      "±": 305,
      "²": 306,
      "³": 307,
      "´": 308,
      "µ": 309,
      "¶": 310,
      "·": 311,
      "¸": 312,
      "¹": 313,
      "º": 314,
      "»": 315,
      "¼": 316,
      "½": 317,
      "¾": 318,
      "¿": 319,
      "À": 320,
      "Á": 321,
      "Â": 322,
      "Ã": 323,
      "Ä": 324,
      "Å": 325,
      "Æ": 326,
      "Ç": 327,
      "È": 328,
      "É": 329,
      "Ê": 330,
      "Ë": 331,
      "Ì": 332,
      "Í": 333,
      "Î": 334,
      "Ï": 335,
      "Ð": 336,
      "Ñ": 337,
      "Ò": 338,
      "Ó": 339,
      "Ô": 340,
      "Õ": 341,
      "Ö": 342,
      "×": 343,
      "Ø": 344,
      "Ù": 345,
      "Ú": 346,
      "Û": 347,
      "Ü": 348,
      "Ý": 349,
      "Þ": 350,
      "ß": 351,
      "à": 352,
      "á": 353,
      "â": 354,
      "ã": 355,
      "ä": 356,
      "å": 357,
      "æ": 358,
      "ç": 359,
      "è": 360,
      "é": 361,
      "ê": 362,
      "ë": 363,
      "ì": 364,
      "í": 365,
      "î": 366,
      "ï": 367,
      "ð": 368,
      "ñ": 369,
      "ò": 370,
      "ó": 371,
      "ô": 372,
      "õ": 373,
      "ö": 374,
      "÷": 375,
      "ø": 376,
      "ù": 377,
      "ú": 378,
      "û": 379,
      "ü": 380,
      "ý": 381,
      "þ": 382,
      "ÿ": 383,
      "ĠĠ": 384,
      "Ġt": 385,
      "in": 386,
      "Ġa": 387,
      "he": 388,
      "re": 389,
      "ĠĠĠĠ": 390,
      "on": 391,
      "er": 392,
      "Ġs": 393,
      "at": 394,
      "en": 395,
      "Ġthe": 396,
      "or": 397,
      "Ġc": 398,
      "es": 399,
      "it": 400,
      "an": 401,
      "is": 402,
      "Ġw": 403,
      "ou": 404,
      "al": 405,
      "Ġp": 406,
      "Ġd": 407,
      "ar": 408,
      "Ġf": 409,
      "ed": 410,
      "Ġo": 411,
      "Ġb": 412,
      "ing": 413,
      "Ġm": 414,
      "le": 415,
      "nd": 416,
      "ĊĊ": 417,
      "ion": 418,
      "as": 419,
      "ic": 420,
      "Ġin": 421,
      "Ġto": 422,
      "Ġof": 423,
      "ro": 424,
      "Ġh": 425,
      "Ġand": 426,
      "âĢ": 427,
      "el": 428,
      "et": 429,
      "ĠĠĠĠĠĠĠĠ": 430,
      "ĠĠĠ": 431,
      "Ġl": 432,
      "ent": 433,
      "Ġn": 434,
      "st": 435,
      "Ġth": 436,
      "ct": 437,
      "om": 438,
      "il": 439,
      "Ġre": 440,
      "Ġe": 441,
      "am": 442,
      "id": 443,
      "im": 444,
      "Ġg": 445,
      "ĠI": 446,
      "ig": 447,
      "ot": 448,
      "ad": 449,
      "ac": 450,
      "ve": 451,
      "ol": 452,
      "ĠT": 453,
      "ĠS": 454,
      "Ġu": 455,
      "ut": 456,
      "se": 457,
      "Ġis": 458,
      "Ġ(": 459,
      "ow": 460,
      "ur": 461,
      "Ġy": 462,
      "ĠA": 463,
      "ation": 464,
      "ly": 465,
      "qu": 466,
      "ay": 467,
      "ver": 468,
      "ĠC": 469,
      "Ġfor": 470,
      "Ġbe": 471,
      "Ġde": 472,
      "ch": 473,
      "Ġon": 474,
      "Ġst": 475,
      "ul": 476,
      "od": 477,
      "if": 478,
      "ce": 479,
      ".ĊĊ": 480,
      "Ġhe": 481,
      "ir": 482,
      "Ġ=": 483,
      "ab": 484,
      "Ġthat": 485,
      "ith": 486,
      "ag": 487,
      "ĠM": 488,
      "ĠĠĠĠĠĠĠ": 489,
      "Ġ\\": 490,
      "âĢĻ": 491,
      "Ġyou": 492,
      "Ġv": 493,
      "em": 494,
      "Ġ$": 495,
      "os": 496,
      "Ġcon": 497,
      "ter": 498,
      ";Ċ": 499,
      "--": 500,
      "ri": 501,
      "um": 502,
      "us": 503,
      "est": 504,
      "Ġal": 505,
      "ĠP": 506,
      "Ġas": 507,
      "ra": 508,
      "Ġit": 509,
      "Ġwith": 510,
      "un": 511,
      "ate": 512,
      "ht": 513,
      "Ġan": 514,
      "ĠB": 515,
      "pe": 516,
      "and": 517,
      ".Ċ": 518,
      "ist": 519,
      "Ġpro": 520,
      "res": 521,
      "te": 522,
      "pp": 523,
      "th": 524,
      "ĠD": 525,
      "ĠH": 526,
      "Ġwh": 527,
      "Ġwe": 528,
      "ke": 529,
      "Ġse": 530,
      "end": 531,
      "oc": 532,
      "out": 533,
      "čĊ": 534,
      "ĠR": 535,
      "ĠF": 536,
      "ore": 537,
      "ĠL": 538,
      "Ġr": 539,
      "ĠÐ": 540,
      "ill": 541,
      "ess": 542,
      "Ġcom": 543,
      "ers": 544,
      "ĠW": 545,
      "her": 546,
      "ĠThe": 547,
      "Ġ\"": 548,
      "Ġex": 549,
      "ld": 550,
      "Ġ{": 551,
      "pt": 552,
      "ew": 553,
      "ort": 554,
      "ĠE": 555,
      "ant": 556,
      "iv": 557,
      "##": 558,
      "Ġwas": 559,
      "ĉĉ": 560,
      "nt": 561,
      "ction": 562,
      "ĠN": 563,
      "our": 564,
      "Ġsu": 565,
      "Ġat": 566,
      "Ġare": 567,
      "rom": 568,
      "ain": 569,
      "op": 570,
      "ight": 571,
      "Ġor": 572,
      "ame": 573,
      "ĠĠĠĠĠĠĠĠĠĠĠĠĠĠĠĠ": 574,
      "ĠG": 575,
      "ment": 576,
      "Ġha": 577,
      "art": 578,
      "ity": 579,
      "ue": 580,
      "Ġthis": 581,
      "Ã©": 582,
      "Ġle": 583,
      ",Ċ": 584,
      "Ġqu": 585,
      "pl": 586,
      "Ð¾": 587,
      "ĠâĢ": 588,
      "ass": 589,
      ")Ċ": 590,
      "}Ċ": 591,
      "ine": 592,
      "Ġnot": 593,
      "Âł": 594,
      "//": 595,
      "Ð°": 596,
      "ure": 597,
      "all": 598,
      "de": 599,
      "Ġ|": 600,
      "Ġby": 601,
      "Ġj": 602,
      "Ġsh": 603,
      "ive": 604,
      "**": 605,
      "Ġfrom": 606,
      "Ġk": 607,
      "iz": 608,
      "og": 609,
      ");Ċ": 610,
      "Ġen": 611,
      "ĠĊ": 612,
      "ie": 613,
      "ub": 614,
      "Ġch": 615,
      "ell": 616,
      "ãģ": 617,
      "ies": 618,
      "ust": 619,
      "ack": 620,
      "ap": 621,
      "ge": 622,
      "âĢĿ": 623,
      "ĠO": 624,
      "ould": 625,
      "_{": 626,
      "ial": 627,
      "ĠĠĠĠĠĠĠĠĠĠĠ": 628,
      "age": 629,
      "red": 630,
      "Ġhave": 631,
      "Ġun": 632,
      "Ġcan": 633,
      "ard": 634,
      "Ġcl": 635,
      "ĠJ": 636,
      "ect": 637,
      "Ġme": 638,
      "Ðµ": 639,
      "rou": 640,
      "Ġ*": 641,
      "per": 642,
      "..": 643,
      "ff": 644,
      "Ġ<": 645,
      "Ġne": 646,
      "Ġ{Ċ": 647,
      "ost": 648,
      "Ġ'": 649,
      "int": 650,
      "Ð¸": 651,
      "ok": 652,
      "ï¼": 653,
      "Ġ-": 654,
      "ich": 655,
      "ath": 656,
      "ult": 657,
      "cl": 658,
      "Ġtr": 659,
      "xt": 660,
      "able": 661,
      "ome": 662,
      "ak": 663,
      "orm": 664,
      "ind": 665,
      "con": 666,
      "Ġdo": 667,
      "imp": 668,
      "to": 669,
      "ide": 670,
      "----": 671,
      "ast": 672,
      "Ġab": 673,
      "âĢĻs": 674,
      "ans": 675,
      "hen": 676,
      "Ġla": 677,
      "Ġif": 678,
      "Ġpl": 679,
      "Ġus": 680,
      "Ġall": 681,
      "are": 682,
      "av": 683,
      "ud": 684,
      "urn": 685,
      "ia": 686,
      "ip": 687,
      ">Ċ": 688,
      "ĠU": 689,
      "Ð½": 690,
      "ite": 691,
      "ime": 692,
      "ib": 693,
      "ä¸": 694,
      "ile": 695,
      "ph": 696,
      "ace": 697,
      "ÑĢ": 698,
      "one": 699,
      "ice": 700,
      "ord": 701,
      "ated": 702,
      "ong": 703,
      "ase": 704,
      "The": 705,
      "Ġhis": 706,
      "ãĢ": 707,
      "ally": 708,
      "ÑĤ": 709,
      "Ġbut": 710,
      "'s": 711,
      "com": 712,
      "=\"": 713,
      "Ġres": 714,
      "Ġcomp": 715,
      "()": 716,
      "Ġher": 717,
      "ous": 718,
      "act": 719,
      "Ġ&": 720,
      "ber": 721,
      "ork": 722,
      "Ġyour": 723,
      "ĠK": 724,
      "tr": 725,
      "Ġ}": 726,
      "ang": 727,
      "ign": 728,
      "Ġso": 729,
      "Ġwill": 730,
      "ens": 731,
      "ĠĠĠĠĠ": 732,
      "ire": 733,
      "Ġout": 734,
      "ition": 735,
      "Ñģ": 736,
      "Ġad": 737,
      "ĠV": 738,
      "{\\": 739,
      "cc": 740,
      "ther": 741,
      "ĠIn": 742,
      "Ġgo": 743,
      "ata": 744,
      "au": 745,
      "lic": 746,
      "ft": 747,
      "ps": 748,
      "Ġmy": 749,
      "gh": 750,
      "ï¼Į": 751,
      "Ġlo": 752,
      "ance": 753,
      "Ð¾Ð": 754,
      "ãĤ": 755,
      "Ġ[": 756,
      "ãĥ": 757,
      "ma": 758,
      "ru": 759,
      "be": 760,
      "ll": 761,
      "ary": 762,
      "ach": 763,
      "Ġcont": 764,
      "so": 765,
      "get": 766,
      "Ġ$\\": 767,
      "Ġup": 768,
      "ĠTh": 769,
      "Ġhas": 770,
      "lo": 771,
      "ĠâĢľ": 772,
      "==": 773,
      "ry": 774,
      "``": 775,
      "du": 776,
      "ations": 777,
      "ere": 778,
      "Ġone": 779,
      "Ġar": 780,
      "Ġper": 781,
      "ake": 782,
      "form": 783,
      "turn": 784,
      "ress": 785,
      "ne": 786,
      "Ġthey": 787,
      "ions": 788,
      "Ġhad": 789,
      "Ġwhich": 790,
      ").": 791,
      "ical": 792,
      "Ġno": 793,
      "à¦": 794,
      "ode": 795,
      "elf": 796,
      "Ġsa": 797,
      "</": 798,
      "),": 799,
      "Ġsp": 800,
      "ĊĊĊ": 801,
      "ser": 802,
      "ear": 803,
      "very": 804,
      "row": 805,
      "Ġel": 806,
      "ient": 807,
      "ep": 808,
      "ref": 809,
      "ĠĠĠĠĠĠĠĠĠĠĠĠĠĠĠ": 810,
      "Ġdes": 811,
      "In": 812,
      "ck": 813,
      "Ġman": 814,
      ":Ċ": 815,
      "Ġli": 816,
      "ose": 817,
      "ĠY": 818,
      "Ġdis": 819,
      "ype": 820,
      "âĢľ": 821,
      "Ġget": 822,
      "own": 823,
      "ence": 824,
      "}\\": 825,
      "Ġmore": 826,
      "Ġnew": 827,
      "Ġtheir": 828,
      "ÃŃ": 829,
      "Ġque": 830,
      "Ġ+": 831,
      ";ĊĊ": 832,
      "gin": 833,
      "ject": 834,
      "Ġsc": 835,
      "ely": 836,
      "Ã³": 837,
      "ount": 838,
      "Ġshe": 839,
      "Ġi": 840,
      "ory": 841,
      "Ġev": 842,
      "ound": 843,
      "Ġte": 844,
      "Ġwere": 845,
      "ail": 846,
      "ont": 847,
      "ink": 848,
      "Ġapp": 849,
      "ors": 850,
      "iss": 851,
      "ick": 852,
      "here": 853,
      "^{": 854,
      "math": 855,
      "Ġund": 856,
      "Ġtime": 857,
      "ree": 858,
      "Ġkn": 859,
      "vel": 860,
      "ark": 861,
      "low": 862,
      "we": 863,
      "ock": 864,
      "Ġclass": 865,
      "Ġag": 866,
      "::": 867,
      "ild": 868,
      "',": 869,
      "ĠSt": 870,
      "Ġother": 871,
      "Ġimp": 872,
      "Ġany": 873,
      "Ġabout": 874,
      "âĢĶ": 875,
      "old": 876,
      "Ð»": 877,
      "io": 878,
      "çļ": 879,
      "Ġpart": 880,
      "che": 881,
      "Ġwould": 882,
      "vers": 883,
      "âĢĻt": 884,
      "Ġro": 885,
      "eth": 886,
      "Ġwhen": 887,
      "ĠIt": 888,
      "çļĦ": 889,
      "ex": 890,
      "äº": 891,
      "ings": 892,
      "ize": 893,
      "Ġthere": 894,
      "Ġover": 895,
      "ays": 896,
      "Ġwork": 897,
      "}$": 898,
      "ĠCh": 899,
      "unction": 900,
      "ption": 901,
      "Ġreturn": 902,
      "Ġalso": 903,
      "sp": 904,
      "Ġwho": 905,
      "Ġsome": 906,
      "iff": 907,
      "Ġpr": 908,
      "Ġthem": 909,
      "ob": 910,
      "pon": 911,
      "ãĢĤ": 912,
      "ull": 913,
      "Ġpre": 914,
      "fr": 915,
      "pro": 916,
      "Ġbeen": 917,
      "Ġlike": 918,
      "text": 919,
      "ents": 920,
      "ov": 921,
      "ĠÃ": 922,
      "li": 923,
      ".âĢĿ": 924,
      "ta": 925,
      "->": 926,
      "ces": 927,
      "--------": 928,
      "Ġinto": 929,
      "Ġob": 930,
      "sc": 931,
      "alue": 932,
      "Ġpar": 933,
      "\",": 934,
      "wo": 935,
      "Ġpe": 936,
      "ener": 937,
      "Ġz": 938,
      "ublic": 939,
      "irst": 940,
      "reat": 941,
      "pect": 942,
      "Ġser": 943,
      "Ġ_": 944,
      "Ġoff": 945,
      "(\\": 946,
      "iew": 947,
      "ian": 948,
      "the": 949,
      "put": 950,
      "oint": 951,
      "Ã¡": 952,
      "ual": 953,
      "Ġwhat": 954,
      "ys": 955,
      "ĠHe": 956,
      "Ġam": 957,
      "amp": 958,
      "'t": 959,
      "Ġhim": 960,
      "Ġset": 961,
      "Ġthan": 962,
      "(\"": 963,
      "Ðº": 964,
      "yst": 965,
      "ec": 966,
      "Ġ//": 967,
      "Ġ:": 968,
      "Ġ.": 969,
      "iel": 970,
      "name": 971,
      "Ġco": 972,
      "ef": 973,
      "up": 974,
      "Ġjust": 975,
      "Ġdef": 976,
      "ring": 977,
      "Ġour": 978,
      "Ñĥ": 979,
      "set": 980,
      "lect": 981,
      "rib": 982,
      "ert": 983,
      "fter": 984,
      "Ġim": 985,
      "Ġ}Ċ": 986,
      "Ġmod": 987,
      "les": 988,
      "pec": 989,
      "Ġer": 990,
      "ict": 991,
      "rit": 992,
      "gr": 993,
      "Ġbet": 994,
      "ari": 995,
      "Ġcol": 996,
      "erm": 997,
      "ific": 998,
      "ade": 999,
      ")ĊĊ": 1000,
      "Ġfe": 1001,
      "ates": 1002,
      "ä»": 1003,
      "****": 1004,
      "ish": 1005,
      "ove": 1006,
      "Ġits": 1007,
      "hat": 1008,
      "Ġcomm": 1009,
      "Ġbo": 1010,
      "Ġint": 1011,
      "Ġonly": 1012,
      "Ġet": 1013,
      "ise": 1014,
      "ng": 1015,
      "ss": 1016,
      "tern": 1017,
      "Ġsaid": 1018,
      "ater": 1019,
      "round": 1020,
      "St": 1021,
      "Ġback": 1022,
      "Ġthen": 1023,
      "cre": 1024,
      "ix": 1025,
      "Ġneed": 1026,
      "ystem": 1027,
      "tt": 1028,
      "Ġhow": 1029,
      "port": 1030,
      "right": 1031,
      "Ġcould": 1032,
      "Ġdiff": 1033,
      "Ġuse": 1034,
      "}}": 1035,
      "Ġem": 1036,
      "sh": 1037,
      "('": 1038,
      "pr": 1039,
      "Ġest": 1040,
      "_t": 1041,
      "ble": 1042,
      "ĠThis": 1043,
      "Ġ`": 1044,
      "}ĊĊ": 1045,
      "par": 1046,
      "ange": 1047,
      "oss": 1048,
      "ier": 1049,
      "equ": 1050,
      "Ġadd": 1051,
      "ĠWe": 1052,
      "âĢ¢": 1053,
      "bo": 1054,
      "Ġ/": 1055,
      "Ġtwo": 1056,
      "Ð²": 1057,
      "ĉĉĉĉ": 1058,
      "ause": 1059,
      "igh": 1060,
      "div": 1061,
      "cess": 1062,
      "__": 1063,
      "abel": 1064,
      "fig": 1065,
      "Ġbec": 1066,
      "Ġknow": 1067,
      "ning": 1068,
      "Ġbl": 1069,
      "Ġrec": 1070,
      "Ġdi": 1071,
      "begin": 1072,
      "Ġyear": 1073,
      "uch": 1074,
      "Ġconst": 1075,
      "Ġ@": 1076,
      "me": 1077,
      "Ġes": 1078,
      "ular": 1079,
      "Ġfirst": 1080,
      "lement": 1081,
      "Ġacc": 1082,
      "ax": 1083,
      "Ġfunction": 1084,
      "ug": 1085,
      ")$": 1086,
      "Ġì": 1087,
      "ER": 1088,
      "der": 1089,
      "Ġent": 1090,
      "of": 1091,
      "Ġlook": 1092,
      "line": 1093,
      "ield": 1094,
      "Ġmay": 1095,
      "ough": 1096,
      "und": 1097,
      ".ĊĊĊ": 1098,
      "###": 1099,
      "Ġreg": 1100,
      "itt": 1101,
      "ics": 1102,
      "app": 1103,
      "ait": 1104,
      "ced": 1105,
      "Ġact": 1106,
      "Ġnum": 1107,
      "Ġsub": 1108,
      "Ġrel": 1109,
      "hed": 1110,
      "Ġdid": 1111,
      "Ġform": 1112,
      "Ġcons": 1113,
      "oth": 1114,
      "æľ": 1115,
      "Ġwant": 1116,
      "Ġunder": 1117,
      "Ġfin": 1118,
      "Ġsm": 1119,
      "ons": 1120,
      "ople": 1121,
      "ray": 1122,
      "riv": 1123,
      "}{": 1124,
      "Ġsee": 1125,
      "ĠâĢĵ": 1126,
      "ev": 1127,
      "åı": 1128,
      "_{\\": 1129,
      "Ġwhere": 1130,
      "ĠĠĠĠĠĠĠĠĠĠĠĠĠĠĠĠĠĠĠ": 1131,
      "IN": 1132,
      "Ġke": 1133,
      "ank": 1134,
      "```": 1135,
      "\">": 1136,
      "Ġx": 1137,
      "Ñı": 1138,
      "ating": 1139,
      "let": 1140,
      "rough": 1141,
      "ror": 1142,
      "))": 1143,
      "ible": 1144,
      "Ġ#": 1145,
      "Ġatt": 1146,
      "Ġass": 1147,
      "frac": 1148,
      "atch": 1149,
      "self": 1150,
      "Ġshould": 1151,
      "ful": 1152,
      "ann": 1153,
      "://": 1154,
      "Ġdata": 1155,
      "Ġche": 1156,
      "ale": 1157,
      "ues": 1158,
      "Ġgr": 1159,
      "====": 1160,
      "ren": 1161,
      "oy": 1162,
      "ied": 1163,
      "Ġac": 1164,
      "Ġph": 1165,
      "als": 1166,
      "ollow": 1167,
      "Ġpublic": 1168,
      "Ġinst": 1169,
      "ution": 1170,
      "wn": 1171,
      "ood": 1172,
      "Ġbu": 1173,
      "import": 1174,
      "Ġrem": 1175,
      "Ġinter": 1176,
      "ious": 1177,
      "Ġthese": 1178,
      "read": 1179,
      "Th": 1180,
      "Ġtrans": 1181,
      "its": 1182,
      "\"Ċ": 1183,
      "ĠAn": 1184,
      "Ġend": 1185,
      "enc": 1186,
      "que": 1187,
      "Ġsur": 1188,
      "ility": 1189,
      "ger": 1190,
      "ative": 1191,
      "\":": 1192,
      "Ġmake": 1193,
      "olog": 1194,
      "Ġdel": 1195,
      ".com": 1196,
      "ty": 1197,
      "pos": 1198,
      ";čĊ": 1199,
      "å¤": 1200,
      "\\end": 1201,
      "Ġpeople": 1202,
      "oid": 1203,
      "Ġresult": 1204,
      "imes": 1205,
      "ym": 1206,
      "Ġafter": 1207,
      "Ġdon": 1208,
      "Ġevery": 1209,
      "\\begin": 1210,
      "Ġmost": 1211,
      "Ġthrough": 1212,
      "ĠUn": 1213,
      "ms": 1214,
      "Ġdiffere": 1215,
      "Ġprov": 1216,
      "Ġcor": 1217,
      "ator": 1218,
      "Ġsuch": 1219,
      "ON": 1220,
      "Ð¼": 1221,
      "Ð´": 1222,
      "Ġhand": 1223,
      "rain": 1224,
      "Ġinv": 1225,
      "Ġway": 1226,
      "ave": 1227,
      "ude": 1228,
      "ures": 1229,
      "eng": 1230,
      "br": 1231,
      "Ġwell": 1232,
      "vice": 1233,
      "ract": 1234,
      "Ġnow": 1235,
      "tring": 1236,
      "ased": 1237,
      "âĢĵ": 1238,
      "Ġsupp": 1239,
      "Ġfollow": 1240,
      "Ġwor": 1241,
      "ward": 1242,
      "Ġeven": 1243,
      "Ġ}ĊĊ": 1244,
      "atic": 1245,
      ",\\": 1246,
      "other": 1247,
      "ement": 1248,
      "fore": 1249,
      "mer": 1250,
      "ĠQ": 1251,
      "ting": 1252,
      "ily": 1253,
      "Ġrequ": 1254,
      "cal": 1255,
      "ities": 1256,
      "led": 1257,
      "Ġhel": 1258,
      "ĠÂ": 1259,
      "Con": 1260,
      "ident": 1261,
      "Ġincl": 1262,
      "Ġself": 1263,
      "ash": 1264,
      "ower": 1265,
      "Ġlong": 1266,
      "ices": 1267,
      "ĠSe": 1268,
      "è¿": 1269,
      "ĠRe": 1270,
      "Ġsol": 1271,
      "ik": 1272,
      "]Ċ": 1273,
      "Ġeff": 1274,
      "yn": 1275,
      "Ġav": 1276,
      "Ġdet": 1277,
      "arch": 1278,
      "rm": 1279,
      "co": 1280,
      "dd": 1281,
      "ten": 1282,
      "ruct": 1283,
      "{Ċ": 1284,
      "Ġmin": 1285,
      "Ġcall": 1286,
      "Ġ--": 1287,
      "amb": 1288,
      "Ġcur": 1289,
      "eq": 1290,
      "label": 1291,
      "Ġstr": 1292,
      "æĺ": 1293,
      "ars": 1294,
      "Ġop": 1295,
      "Ġagain": 1296,
      "ĠPro": 1297,
      "Pro": 1298,
      "ah": 1299,
      "Ġshow": 1300,
      "Ġdist": 1301,
      "Ġdown": 1302,
      "Ġprodu": 1303,
      "ek": 1304,
      "ages": 1305,
      "ween": 1306,
      "ght": 1307,
      "roup": 1308,
      "ute": 1309,
      "Ġext": 1310,
      "Ġright": 1311,
      "ĠYou": 1312,
      "ved": 1313,
      "It": 1314,
      "ool": 1315,
      "air": 1316,
      "ner": 1317,
      "Ġpoint": 1318,
      "Ġstud": 1319,
      "Ġpres": 1320,
      "Ġpol": 1321,
      "Ġused": 1322,
      "ethod": 1323,
      "Ġfl": 1324,
      "Ġgener": 1325,
      "ife": 1326,
      "ĠĠĠĠĠĠĠĠĠ": 1327,
      "Ġspec": 1328,
      "erson": 1329,
      "ond": 1330,
      "nce": 1331,
      "åħ": 1332,
      "az": 1333,
      "čĊčĊ": 1334,
      "Ġaut": 1335,
      "aking": 1336,
      "ĠCom": 1337,
      "rent": 1338,
      "Ġbecause": 1339,
      "Ġgu": 1340,
      "ince": 1341,
      "ody": 1342,
      "arg": 1343,
      "left": 1344,
      "Ġthink": 1345,
      "Ġ=>": 1346,
      "Ġstart": 1347,
      "ĠAl": 1348,
      "();Ċ": 1349,
      "Ġdoes": 1350,
      "Ġvery": 1351,
      "Ġname": 1352,
      "RE": 1353,
      "Ġeach": 1354,
      "user": 1355,
      "Ġmuch": 1356,
      "Ġusing": 1357,
      "Ġsom": 1358,
      "cond": 1359,
      "ST": 1360,
      "âĢ¦": 1361,
      "ĠZ": 1362,
      "htt": 1363,
      "Ġfr": 1364,
      "ÃŃa": 1365,
      "Ġgood": 1366,
      "ien": 1367,
      "eta": 1368,
      "way": 1369,
      "raph": 1370,
      "Ġbetween": 1371,
      "...": 1372,
      "Ã¤": 1373,
      ",âĢĿ": 1374,
      "Ġval": 1375,
      "Ġmon": 1376,
      "col": 1377,
      "ado": 1378,
      "anc": 1379,
      "this": 1380,
      "ä½": 1381,
      "Ñĸ": 1382,
      "ton": 1383,
      "min": 1384,
      "åĪ": 1385,
      "ever": 1386,
      "Ex": 1387,
      "Ġloc": 1388,
      "####": 1389,
      "Ġhere": 1390,
      "Ġbefore": 1391,
      "son": 1392,
      "ĠIf": 1393,
      "},": 1394,
      "sub": 1395,
      "cept": 1396,
      "cri": 1397,
      "ource": 1398,
      "ational": 1399,
      "AT": 1400,
      "alk": 1401,
      "ized": 1402,
      "ho": 1403,
      "ature": 1404,
      "ĠAnd": 1405,
      "def": 1406,
      "Ġfind": 1407,
      "ä¹": 1408,
      "Ã¼": 1409,
      "add": 1410,
      "ames": 1411,
      "ĠÐ¿": 1412,
      "_d": 1413,
      "Ġvalue": 1414,
      "Ġë": 1415,
      "Ġhelp": 1416,
      "ample": 1417,
      "Ġplay": 1418,
      "da": 1419,
      "Ġ</": 1420,
      "Ġcre": 1421,
      "ÑģÑĤ": 1422,
      "Ġsame": 1423,
      "Ġref": 1424,
      "ern": 1425,
      "å®": 1426,
      "ider": 1427,
      "any": 1428,
      "Ġmodel": 1429,
      "Ġap": 1430,
      "str": 1431,
      "åľ": 1432,
      ".get": 1433,
      "åĲ": 1434,
      "cent": 1435,
      "Ġsystem": 1436,
      ".p": 1437,
      "We": 1438,
      "Ġsign": 1439,
      "iÃ³": 1440,
      "Ġvari": 1441,
      "Ġtest": 1442,
      "ctions": 1443,
      "irect": 1444,
      "Ġread": 1445,
      "ense": 1446,
      "ÂłÂł": 1447,
      "})": 1448,
      "Ġmany": 1449,
      "-b": 1450,
      "Ġbel": 1451,
      "Ġcar": 1452,
      "vent": 1453,
      "ĠAr": 1454,
      "Ġdifferent": 1455,
      "ĠÃł": 1456,
      "ä¸Ģ": 1457,
      "uss": 1458,
      "ined": 1459,
      "Ġlet": 1460,
      "yp": 1461,
      "ĉĉĉ": 1462,
      "Name": 1463,
      "ines": 1464,
      "ments": 1465,
      "fo": 1466,
      "Ġimport": 1467,
      "Ã¨": 1468,
      "ÑĮ": 1469,
      ".m": 1470,
      ".\"": 1471,
      ".,": 1472,
      "ĠShe": 1473,
      "ĠFor": 1474,
      "Ġcase": 1475,
      "for": 1476,
      "Ġinte": 1477,
      "Ġder": 1478,
      "Ġ,": 1479,
      "day": 1480,
      "æĪ": 1481,
      "Ġdec": 1482,
      "cite": 1483,
      "ric": 1484,
      "ared": 1485,
      "Ġnumber": 1486,
      "ually": 1487,
      "ven": 1488,
      "uc": 1489,
      "Ġequ": 1490,
      "val": 1491,
      "Ġgiv": 1492,
      "Ġhigh": 1493,
      "Ġexp": 1494,
      "ots": 1495,
      "uring": 1496,
      "$,": 1497,
      "ai": 1498,
      "Ġexper": 1499,
      "gan": 1500,
      "ĠX": 1501,
      "ìĿ": 1502,
      "ĠAs": 1503,
      "bf": 1504,
      "Ġ*/": 1505,
      ");ĊĊ": 1506,
      "Ġbeing": 1507,
      "ĠÃ©": 1508,
      "ĠĠĠĠĠĠĠĠĠĠĠĠĠĠĠĠĠĠĠĠĠĠĠĠĠĠĠĠĠĠĠĠ": 1509,
      "tain": 1510,
      "ts": 1511,
      "Id": 1512,
      "_s": 1513,
      "ited": 1514,
      "aj": 1515,
      "ather": 1516,
      "Ġver": 1517,
      ".âĢĿĊ": 1518,
      "....": 1519,
      "Ġchar": 1520,
      "Ġmat": 1521,
      "ead": 1522,
      "aut": 1523,
      "Ġwhile": 1524,
      "velop": 1525,
      "-s": 1526,
      "_m": 1527,
      "Ġown": 1528,
      "Ġ|Ċ": 1529,
      "ote": 1530,
      "Ġbr": 1531,
      "ung": 1532,
      "Ġra": 1533,
      "ask": 1534,
      "Ch": 1535,
      "Ġtake": 1536,
      "Ġreal": 1537,
      "td": 1538,
      "aw": 1539,
      "Ġyears": 1540,
      "Ġed": 1541,
      "Ġ==": 1542,
      "Ġtype": 1543,
      "ins": 1544,
      "ams": 1545,
      "Ġpos": 1546,
      "ĠÐ²": 1547,
      "Ġlist": 1548,
      "----------------": 1549,
      "Ġmade": 1550,
      "Ġind": 1551,
      "EN": 1552,
      "over": 1553,
      "ãĢģ": 1554,
      "ij": 1555,
      "Ġstill": 1556,
      "Ġrun": 1557,
      "Ġve": 1558,
      "ext": 1559,
      "log": 1560,
      "?ĊĊ": 1561,
      "æĺ¯": 1562,
      "ism": 1563,
      "ument": 1564,
      "Ġfil": 1565,
      "å°": 1566,
      "Ġ!": 1567,
      "ery": 1568,
      "_p": 1569,
      "ness": 1570,
      "Ġrep": 1571,
      "gy": 1572,
      "Ġmed": 1573,
      "ĠBut": 1574,
      "ĠĠĊ": 1575,
      "formation": 1576,
      "AR": 1577,
      "Ñĭ": 1578,
      "-t": 1579,
      "ÑĢÐ°": 1580,
      "Ġhead": 1581,
      "ww": 1582,
      "Com": 1583,
      "\",Ċ": 1584,
      "Ñĩ": 1585,
      "idth": 1586,
      "pha": 1587,
      "_n": 1588,
      "Ġthose": 1589,
      "********": 1590,
      "ĠDe": 1591,
      "Ġfact": 1592,
      "Ġboth": 1593,
      "ault": 1594,
      "ID": 1595,
      "Type": 1596,
      ":ĊĊ": 1597,
      "ml": 1598,
      "return": 1599,
      "}(": 1600,
      "man": 1601,
      "ets": 1602,
      "ais": 1603,
      "rest": 1604,
      "OR": 1605,
      ".S": 1606,
      "sw": 1607,
      "ux": 1608,
      "view": 1609,
      "ĠLe": 1610,
      "alse": 1611,
      "):Ċ": 1612,
      "ĠSh": 1613,
      "ĠâĢĶ": 1614,
      "ason": 1615,
      "Ġfound": 1616,
      "Ġelse": 1617,
      "ole": 1618,
      "Ġaround": 1619,
      "Ġins": 1620,
      "ÐµÐ½": 1621,
      "AL": 1622,
      "att": 1623,
      "Ġperson": 1624,
      "land": 1625,
      "ci": 1626,
      "Ġfam": 1627,
      "æĹ": 1628,
      "Ġdep": 1629,
      "rol": 1630,
      ")\\": 1631,
      "_f": 1632,
      "Ġgreat": 1633,
      "ĠHow": 1634,
      "Ġlast": 1635,
      "bl": 1636,
      "ĠCon": 1637,
      "Ġline": 1638,
      "ving": 1639,
      "rop": 1640,
      "arn": 1641,
      "go": 1642,
      "equation": 1643,
      "ouse": 1644,
      "?âĢĿ": 1645,
      "Ġpass": 1646,
      "\\Ċ": 1647,
      "à§": 1648,
      "_c": 1649,
      "Ġposs": 1650,
      "Ġbest": 1651,
      "ought": 1652,
      "Ġmem": 1653,
      "ization": 1654,
      "ired": 1655,
      ".s": 1656,
      "{equation": 1657,
      "gg": 1658,
      "Ġmet": 1659,
      "Ġpartic": 1660,
      "inal": 1661,
      "bb": 1662,
      "Ð¾Ð²": 1663,
      "ĠÑģ": 1664,
      "Ġsay": 1665,
      "ĠNew": 1666,
      "Ġproble": 1667,
      "Ġdem": 1668,
      "Ġnon": 1669,
      "odel": 1670,
      ".c": 1671,
      "Ġbre": 1672,
      "ying": 1673,
      "lex": 1674,
      "yle": 1675,
      "çĶ": 1676,
      "ves": 1677,
      "oci": 1678,
      "ross": 1679,
      "Ġgoing": 1680,
      "Ġprocess": 1681,
      "Ġles": 1682,
      "Ġvis": 1683,
      "-d": 1684,
      "Ġday": 1685,
      "Ã¶": 1686,
      "Ġtra": 1687,
      "à¤": 1688,
      "ĠCl": 1689,
      "essage": 1690,
      "Res": 1691,
      "Cl": 1692,
      "Ġmain": 1693,
      "amet": 1694,
      "alpha": 1695,
      "Ġdie": 1696,
      "IT": 1697,
      "}^": 1698,
      "work": 1699,
      "ists": 1700,
      "Ġtem": 1701,
      "chn": 1702,
      "alth": 1703,
      "Ġsim": 1704,
      "Ġtoo": 1705,
      "Ġlos": 1706,
      "hes": 1707,
      "mathcal": 1708,
      ".j": 1709,
      "ants": 1710,
      "oun": 1711,
      "Ġinf": 1712,
      "ada": 1713,
      "Ġmethod": 1714,
      "not": 1715,
      "AM": 1716,
      "Â»": 1717,
      "-f": 1718,
      "This": 1719,
      "LE": 1720,
      "ga": 1721,
      "less": 1722,
      "Ġ>": 1723,
      ".d": 1724,
      "Ġinclud": 1725,
      "ething": 1726,
      "Ġcount": 1727,
      "Ġeffect": 1728,
      "Ġopen": 1729,
      "ĠTr": 1730,
      "arm": 1731,
      "Ġsk": 1732,
      "Ġtrue": 1733,
      "cont": 1734,
      "è¯": 1735,
      "ä¸į": 1736,
      "\">Ċ": 1737,
      "ases": 1738,
      "Ġsl": 1739,
      "Ð·": 1740,
      "ãģ®": 1741,
      "ule": 1742,
      "Ġexpl": 1743,
      "Ġcent": 1744,
      "ĠEx": 1745,
      "['": 1746,
      "-m": 1747,
      "Ġpat": 1748,
      "Ġworld": 1749,
      "ters": 1750,
      "To": 1751,
      "Ġlife": 1752,
      "pre": 1753,
      "Ġà¦": 1754,
      "String": 1755,
      "ane": 1756,
      "var": 1757,
      "Ġcle": 1758,
      "$.": 1759,
      "akes": 1760,
      "Ġ)": 1761,
      "uf": 1762,
      "thing": 1763,
      "=\\": 1764,
      "itle": 1765,
      "span": 1766,
      "']": 1767,
      "iness": 1768,
      "Ġdevelop": 1769,
      "SE": 1770,
      "Ġpor": 1771,
      "ential": 1772,
      "ponse": 1773,
      "ica": 1774,
      "ength": 1775,
      "Ġ*/Ċ": 1776,
      "sum": 1777,
      "><": 1778,
      "ambda": 1779,
      "rivate": 1780,
      "')": 1781,
      "Ġsecond": 1782,
      "List": 1783,
      "Ġmark": 1784,
      "arly": 1785,
      "ittle": 1786,
      "ĠThey": 1787,
      "uck": 1788,
      "ĠĠĠĠĠĠĠĠĠĠĠĠĠĠĠĠĠĠĠĠĠĠĠ": 1789,
      "hor": 1790,
      "ava": 1791,
      "Ġsmall": 1792,
      "äºĨ": 1793,
      "Ġask": 1794,
      "Ġmust": 1795,
      "by": 1796,
      "ott": 1797,
      "Ġsch": 1798,
      "ience": 1799,
      "hip": 1800,
      "Ġconf": 1801,
      "estion": 1802,
      "play": 1803,
      "Ġthree": 1804,
      "Ġcontin": 1805,
      "dex": 1806,
      "ception": 1807,
      "ream": 1808,
      "Ġreally": 1809,
      "Ġturn": 1810,
      "Ð¿": 1811,
      "$\\": 1812,
      "roll": 1813,
      "Ġfeel": 1814,
      "Ð¹": 1815,
      "px": 1816,
      "_\\": 1817,
      "pi": 1818,
      "elta": 1819,
      "cur": 1820,
      "ccess": 1821,
      "til": 1822,
      "ends": 1823,
      "å¹": 1824,
      "As": 1825,
      "https": 1826,
      "ĠÐ½": 1827,
      "ows": 1828,
      "Ġbus": 1829,
      "AN": 1830,
      "ality": 1831,
      "item": 1832,
      "Ġtop": 1833,
      "raw": 1834,
      "Ñħ": 1835,
      "use": 1836,
      "ina": 1837,
      "ways": 1838,
      "Ġcr": 1839,
      "ĠĠĠĠĠĠ": 1840,
      "Ġhapp": 1841,
      "He": 1842,
      "oh": 1843,
      "You": 1844,
      "ĠâĢĺ": 1845,
      "Ġoper": 1846,
      "bar": 1847,
      "_st": 1848,
      "Ġca": 1849,
      "_l": 1850,
      "Ġterm": 1851,
      "Ġcour": 1852,
      "Ġsomething": 1853,
      "Ġstate": 1854,
      "Ar": 1855,
      "ional": 1856,
      "Ġtri": 1857,
      "Ġappro": 1858,
      "Ġuna": 1859,
      "ivers": 1860,
      "Cont": 1861,
      "tic": 1862,
      "Ġsupport": 1863,
      "()Ċ": 1864,
      "ron": 1865,
      "ural": 1866,
      "Ġil": 1867,
      "requ": 1868,
      "Ġwithout": 1869,
      "class": 1870,
      "Ġlead": 1871,
      "æĿ": 1872,
      "Ġdu": 1873,
      "Ġdisc": 1874,
      "med": 1875,
      "Ġmight": 1876,
      "Ġden": 1877,
      "Data": 1878,
      "Ġincre": 1879,
      "',Ċ": 1880,
      "Ġfew": 1881,
      "Ġfile": 1882,
      "rem": 1883,
      ",\"": 1884,
      "Ġplace": 1885,
      "Ġchild": 1886,
      "ior": 1887,
      "ral": 1888,
      "arent": 1889,
      "](": 1890,
      "Ġpost": 1891,
      "Ġproper": 1892,
      "amma": 1893,
      "comm": 1894,
      "back": 1895,
      "æĸ": 1896,
      "date": 1897,
      "uff": 1898,
      "ology": 1899,
      "Ġcome": 1900,
      "Ġstat": 1901,
      "Ġdidn": 1902,
      "issue": 1903,
      "~\\": 1904,
      "åŃ": 1905,
      "========": 1906,
      "Ġpas": 1907,
      "ush": 1908,
      "Ġgl": 1909,
      "Ġorder": 1910,
      "ords": 1911,
      "Ġlar": 1912,
      "iÃ³n": 1913,
      "Ð°Ð½": 1914,
      "irc": 1915,
      "Ġfollowing": 1916,
      "ctor": 1917,
      "ital": 1918,
      "ament": 1919,
      "ui": 1920,
      "åĽ": 1921,
      "_i": 1922,
      "ified": 1923,
      "Ġvers": 1924,
      "stand": 1925,
      "Ġexpect": 1926,
      "ustom": 1927,
      "Ġgot": 1928,
      "ision": 1929,
      "(t": 1930,
      "ency": 1931,
      ".t": 1932,
      "Ġfield": 1933,
      "?Ċ": 1934,
      "ides": 1935,
      "Ġlittle": 1936,
      "ĠTo": 1937,
      "Ġsince": 1938,
      "Ġey": 1939,
      "bre": 1940,
      "eg": 1941,
      "}^{": 1942,
      "Ġopt": 1943,
      "Ġcond": 1944,
      "orn": 1945,
      "ives": 1946,
      "Ġanother": 1947,
      "bs": 1948,
      "Ġmar": 1949,
      "ertain": 1950,
      "ler": 1951,
      "Ġnull": 1952,
      "ĠFr": 1953,
      "å¾": 1954,
      "ively": 1955,
      "Tr": 1956,
      "Ġstand": 1957,
      "Ġid": 1958,
      "Ġlevel": 1959,
      "arget": 1960,
      "pped": 1961,
      "ability": 1962,
      "].": 1963,
      "itions": 1964,
      "ĠIs": 1965,
      "Ġvoid": 1966,
      "Ġcal": 1967,
      "Ġdirect": 1968,
      "la": 1969,
      "æī": 1970,
      "ify": 1971,
      "Ġperform": 1972,
      "Ð±": 1973,
      "Ġinformation": 1974,
      "urs": 1975,
      "Ġnever": 1976,
      "Ġput": 1977,
      "gram": 1978,
      "ES": 1979,
      "Ġbeh": 1980,
      "rite": 1981,
      "Ġstring": 1982,
      "Ġseem": 1983,
      "Ġgiven": 1984,
      "Ġanal": 1985,
      "Ġleft": 1986,
      "âĢĻre": 1987,
      ".g": 1988,
      "new": 1989,
      "reg": 1990,
      "ically": 1991,
      "Ġson": 1992,
      "Ġeas": 1993,
      "åľ¨": 1994,
      ".f": 1995,
      "Ġhab": 1996,
      "Ġnext": 1997,
      "],": 1998,
      "Ġcurrent": 1999,
      "ene": 2000,
      "Ġcare": 2001,
      "Ð³": 2002,
      "åį": 2003,
      "-\\": 2004,
      "Ġbuild": 2005,
      "lete": 2006,
      "ook": 2007,
      "eps": 2008,
      "Ġprof": 2009,
      "lease": 2010,
      "LL": 2011,
      "ering": 2012,
      "ique": 2013,
      "Ġhome": 2014,
      "sert": 2015,
      "Ġweek": 2016,
      "Ġsimp": 2017,
      "ished": 2018,
      "ware": 2019,
      "////": 2020,
      "ca": 2021,
      "umn": 2022,
      "ero": 2023,
      "org": 2024,
      "const": 2025,
      "Ã©s": 2026,
      "lection": 2027,
      "äºº": 2028,
      "(x": 2029,
      "mu": 2030,
      "-p": 2031,
      "($": 2032,
      "Ġide": 2033,
      "{eq": 2034,
      "\\in": 2035,
      "ey": 2036,
      "ĠPl": 2037,
      "bers": 2038,
      "igma": 2039,
      "ÐµÑĢ": 2040,
      "}_": 2041,
      "username": 2042,
      "Ġrest": 2043,
      "Ġmom": 2044,
      "no": 2045,
      "ĠWh": 2046,
      "CT": 2047,
      "_id": 2048,
      "ĠÐ¸": 2049,
      "}_{": 2050,
      "ĉif": 2051,
      "ember": 2052,
      "clude": 2053,
      "Ġobject": 2054,
      "face": 2055,
      "Ġpower": 2056,
      "Ġthings": 2057,
      "Ġ\\<": 2058,
      "ats": 2059,
      "ĠOn": 2060,
      "ĠÐ¾": 2061,
      "ando": 2062,
      "reen": 2063,
      "Ġiss": 2064,
      "ateg": 2065,
      "ling": 2066,
      "na": 2067,
      "RO": 2068,
      "Ġold": 2069,
      "ĠSo": 2070,
      "ĠNo": 2071,
      "\")": 2072,
      "ains": 2073,
      "ately": 2074,
      "```Ċ": 2075,
      "An": 2076,
      "ze": 2077,
      "af": 2078,
      "ãĢĤĊ": 2079,
      "ĠThere": 2080,
      "Ġpresent": 2081,
      "Ġthought": 2082,
      "ety": 2083,
      "Col": 2084,
      "Ġbetter": 2085,
      "For": 2086,
      "cd": 2087,
      "Ġcho": 2088,
      "Ġproduct": 2089,
      "une": 2090,
      "lob": 2091,
      "Ġduring": 2092,
      "Ġsure": 2093,
      "ĠInd": 2094,
      "ered": 2095,
      "ift": 2096,
      "æľī": 2097,
      "data": 2098,
      "uild": 2099,
      "ression": 2100,
      "ribut": 2101,
      "Ġwom": 2102,
      "resent": 2103,
      "ĠQu": 2104,
      "Ġsit": 2105,
      "Ġâ": 2106,
      "load": 2107,
      "Ġsw": 2108,
      "array": 2109,
      "Ġsing": 2110,
      "ulation": 2111,
      "Ġmult": 2112,
      "Ġje": 2113,
      "Ġspe": 2114,
      "Ġalways": 2115,
      "ĠBe": 2116,
      "Ġ**": 2117,
      "value": 2118,
      "Ġgroup": 2119,
      "Ġvar": 2120,
      "Ġdr": 2121,
      "ĊĊĊĊ": 2122,
      "key": 2123,
      "itive": 2124,
      "Ġcap": 2125,
      "ĠSp": 2126,
      "Ser": 2127,
      "Ġmov": 2128,
      "^{\\": 2129,
      "Ġaway": 2130,
      "Ġhum": 2131,
      "Ġagainst": 2132,
      "vious": 2133,
      "ched": 2134,
      "AS": 2135,
      "-c": 2136,
      "inter": 2137,
      "idd": 2138,
      "Ġvol": 2139,
      "Ġcheck": 2140,
      "If": 2141,
      "Ġlog": 2142,
      "Ġreport": 2143,
      "swer": 2144,
      "_C": 2145,
      "eb": 2146,
      "Ġ%": 2147,
      "âĢĻm": 2148,
      "els": 2149,
      "oot": 2150,
      "vices": 2151,
      "lambda": 2152,
      "phi": 2153,
      "Ġhard": 2154,
      "Ġresults": 2155,
      "Ġarg": 2156,
      "Ġsi": 2157,
      ".l": 2158,
      "ope": 2159,
      "ä¼": 2160,
      "Ob": 2161,
      "Ġtext": 2162,
      "ĠSch": 2163,
      "Ġmen": 2164,
      "Ġê": 2165,
      "Ãª": 2166,
      "Ġdesign": 2167,
      "ç»": 2168,
      "(f": 2169,
      "Ġexample": 2170,
      "ĠWhat": 2171,
      "vert": 2172,
      "Se": 2173,
      "Ġwrit": 2174,
      "Ġproblem": 2175,
      "Ġchang": 2176,
      "Ġvo": 2177,
      "rist": 2178,
      "Ġwon": 2179,
      "Ġunt": 2180,
      "ache": 2181,
      "âĢĻd": 2182,
      "ention": 2183,
      "Ã§": 2184,
      "Ġcommun": 2185,
      "Ġpo": 2186,
      "(Ċ": 2187,
      "aces": 2188,
      "net": 2189,
      "aster": 2190,
      "ĠOr": 2191,
      "ium": 2192,
      "Ġprote": 2193,
      "mp": 2194,
      "section": 2195,
      "Ġprivate": 2196,
      "ĉreturn": 2197,
      "DE": 2198,
      "erence": 2199,
      ".h": 2200,
      "ission": 2201,
      "action": 2202,
      "head": 2203,
      "align": 2204,
      "acter": 2205,
      "iter": 2206,
      "Ġstruct": 2207,
      "ivity": 2208,
      "ients": 2209,
      "Ġlim": 2210,
      "Ġtechn": 2211,
      "rap": 2212,
      "ird": 2213,
      "Ġappe": 2214,
      "ours": 2215,
      "åĬ": 2216,
      "ided": 2217,
      "box": 2218,
      "ĠMar": 2219,
      "itial": 2220,
      "part": 2221,
      "Ã±": 2222,
      "Ġbro": 2223,
      "Ġmean": 2224,
      "ĠRes": 2225,
      "ches": 2226,
      "ume": 2227,
      "ably": 2228,
      "```ĊĊ": 2229,
      "'m": 2230,
      "ploy": 2231,
      "Ġlas": 2232,
      "FF": 2233,
      "Ġchange": 2234,
      "Ġimportant": 2235,
      "Ġkeep": 2236,
      "Ġkey": 2237,
      "order": 2238,
      "}.": 2239,
      "ĠAll": 2240,
      "ĠEn": 2241,
      "ÑĨ": 2242,
      "rc": 2243,
      "Ġsize": 2244,
      "Er": 2245,
      "Ġwar": 2246,
      "opy": 2247,
      "leg": 2248,
      "Ġlight": 2249,
      "Ġcode": 2250,
      "èĢ": 2251,
      "ister": 2252,
      "aba": 2253,
      "Ġpara": 2254,
      "Ġinterest": 2255,
      "Ġbook": 2256,
      "_com": 2257,
      "pond": 2258,
      "And": 2259,
      "Ġfinal": 2260,
      "Ġlocal": 2261,
      "Ġgame": 2262,
      "osed": 2263,
      "Ġview": 2264,
      "ox": 2265,
      "vir": 2266,
      "nect": 2267,
      "ready": 2268,
      "inc": 2269,
      "umber": 2270,
      "ived": 2271,
      "ĠCol": 2272,
      "asure": 2273,
      "></": 2274,
      "ither": 2275,
      "Ġaff": 2276,
      "Ġwater": 2277,
      "ump": 2278,
      "Ġpop": 2279,
      "Ġsal": 2280,
      "Ġfree": 2281,
      "angle": 2282,
      "Ġwithin": 2283,
      "ised": 2284,
      "ĠÂ«": 2285,
      "By": 2286,
      "ĠÐº": 2287,
      "íķ": 2288,
      "core": 2289,
      "Ġbody": 2290,
      "ently": 2291,
      "aps": 2292,
      "ãĥ¼": 2293,
      "Ġhtt": 2294,
      "åĩ": 2295,
      "IC": 2296,
      "Ġgrow": 2297,
      "-l": 2298,
      "param": 2299,
      "But": 2300,
      "ĠAmer": 2301,
      "ination": 2302,
      "Un": 2303,
      "Ġfalse": 2304,
      "Ġconsider": 2305,
      "ĠPh": 2306,
      "Al": 2307,
      "string": 2308,
      "Ġinc": 2309,
      "ables": 2310,
      "code": 2311,
      "Ġprob": 2312,
      "Ġqui": 2313,
      "rix": 2314,
      "Ġident": 2315,
      "arrow": 2316,
      "Ġbusiness": 2317,
      "ino": 2318,
      "upp": 2319,
      "duct": 2320,
      "Ġless": 2321,
      "Ġfri": 2322,
      "Ġmonth": 2323,
      "ä»ĸ": 2324,
      "Ġnet": 2325,
      "è¿Ļ": 2326,
      "urch": 2327,
      "Ð¾Ð´": 2328,
      "Ġplan": 2329,
      "unc": 2330,
      "outh": 2331,
      "ocument": 2332,
      "ormal": 2333,
      "Ð¾ÑĢ": 2334,
      "por": 2335,
      "ëĭ": 2336,
      "ailable": 2337,
      "Ġpot": 2338,
      "æĪĳ": 2339,
      "ager": 2340,
      "Ġgive": 2341,
      "Ġproject": 2342,
      "lu": 2343,
      "Ġable": 2344,
      "mathbb": 2345,
      "Ġbas": 2346,
      "å¥": 2347,
      "Ġcell": 2348,
      "cul": 2349,
      "unt": 2350,
      "Ġce": 2351,
      "Ġleg": 2352,
      "ples": 2353,
      "do": 2354,
      "Ġlot": 2355,
      "Ġret": 2356,
      "\");Ċ": 2357,
      "Ġbig": 2358,
      "Ġ?": 2359,
      "Ġtyp": 2360,
      "$$": 2361,
      "ĠThat": 2362,
      "Ġlarge": 2363,
      "ĠEl": 2364,
      "ido": 2365,
      "Ġ(\\": 2366,
      "Ġside": 2367,
      "Ġorig": 2368,
      "Ġerror": 2369,
      "ĠSer": 2370,
      "rel": 2371,
      "Ġaddition": 2372,
      "Ġfamily": 2373,
      "Ġocc": 2374,
      "itor": 2375,
      "Ġein": 2376,
      "Ġinvest": 2377,
      "):": 2378,
      "_b": 2379,
      "éĩ": 2380,
      "ances": 2381,
      "Ġpossible": 2382,
      "plic": 2383,
      "Value": 2384,
      "ĠĠĠĠĠĠĠĠĠĠĠĠĠ": 2385,
      "Ġface": 2386,
      "Ġcalled": 2387,
      "ĠString": 2388,
      "ĠWhen": 2389,
      "ocial": 2390,
      "ãģ«": 2391,
      "igure": 2392,
      "Ã¡s": 2393,
      "Ġelement": 2394,
      "Ġuser": 2395,
      "ĠÐ´": 2396,
      "Par": 2397,
      "ape": 2398,
      "_S": 2399,
      "ground": 2400,
      "Ġtry": 2401,
      "En": 2402,
      "uro": 2403,
      "ION": 2404,
      "Ġtot": 2405,
      "No": 2406,
      "Ġuntil": 2407,
      "isk": 2408,
      "oney": 2409,
      "å¼": 2410,
      "Ġapplic": 2411,
      "_in": 2412,
      "ican": 2413,
      "Ã£": 2414,
      "Ġhist": 2415,
      "iles": 2416,
      "\\x": 2417,
      "**Ċ": 2418,
      "where": 2419,
      "Ġener": 2420,
      "Ð°Ð»": 2421,
      "wh": 2422,
      "my": 2423,
      "Ġcost": 2424,
      "Ġwhy": 2425,
      "Ġhealth": 2426,
      "ante": 2427,
      "Ġtell": 2428,
      "ĠĊĊ": 2429,
      "ration": 2430,
      "Ġbelie": 2431,
      "Ġ!=": 2432,
      "Ġmoment": 2433,
      "Ġalready": 2434,
      "Ġtrain": 2435,
      "ails": 2436,
      "Ġobser": 2437,
      "Ð¾Ð¼": 2438,
      "rt": 2439,
      "ĠBl": 2440,
      "Ġcontrol": 2441,
      "Ġcreate": 2442,
      "Ð¾Ð»": 2443,
      "View": 2444,
      "Ġorgan": 2445,
      "Ġspace": 2446,
      "ending": 2447,
      "ries": 2448,
      "Ġstatic": 2449,
      "Ġ{\\": 2450,
      "used": 2451,
      "AC": 2452,
      "æŃ": 2453,
      "Get": 2454,
      "erc": 2455,
      "+\\": 2456,
      "atus": 2457,
      "width": 2458,
      "Ġthing": 2459,
      "cription": 2460,
      "elt": 2461,
      "Ġabove": 2462,
      "Ġmag": 2463,
      "(s": 2464,
      "lev": 2465,
      "ories": 2466,
      "),Ċ": 2467,
      "Ġfull": 2468,
      "å·": 2469,
      "Ġunderstand": 2470,
      "Ġmus": 2471,
      "Ġevent": 2472,
      "Ġpath": 2473,
      "fe": 2474,
      "Ġpour": 2475,
      "Ġlove": 2476,
      "icht": 2477,
      "Ġstre": 2478,
      "Ġadv": 2479,
      ");": 2480,
      "Ġeyes": 2481,
      "ification": 2482,
      "ffic": 2483,
      ".A": 2484,
      "ET": 2485,
      "))Ċ": 2486,
      "Ġrece": 2487,
      "{fig": 2488,
      "ĠAd": 2489,
      "Ġpay": 2490,
      "Ġdou": 2491,
      "Ġopp": 2492,
      "html": 2493,
      "Ġsat": 2494,
      "era": 2495,
      "Ġlow": 2496,
      "âĢĻll": 2497,
      "met": 2498,
      "mit": 2499,
      "_T": 2500,
      "Ġcou": 2501,
      "ato": 2502,
      "Ġredu": 2503,
      "IS": 2504,
      "ĠTe": 2505,
      "åĨ": 2506,
      "Ġenough": 2507,
      "Ġsum": 2508,
      "ĠGr": 2509,
      "ills": 2510,
      "_P": 2511,
      "Ġallow": 2512,
      "Ġfar": 2513,
      "ĠLa": 2514,
      "().": 2515,
      "search": 2516,
      "è®": 2517,
      "bol": 2518,
      "<issue": 2519,
      "isc": 2520,
      "iment": 2521,
      "Ġhold": 2522,
      "je": 2523,
      "ording": 2524,
      "Ġbased": 2525,
      "Ġfour": 2526,
      "ilon": 2527,
      "enn": 2528,
      "Ġkind": 2529,
      "ards": 2530,
      "AP": 2531,
      "Ġsent": 2532,
      "Ġsuper": 2533,
      "}{\\": 2534,
      "æķ": 2535,
      "err": 2536,
      "ĠAt": 2537,
      "^{-": 2538,
      "beta": 2539,
      "po": 2540,
      "idual": 2541,
      "Ġbit": 2542,
      "ĠApp": 2543,
      "áĢ": 2544,
      "ession": 2545,
      "Ġobtain": 2546,
      "mathbf": 2547,
      "Ġdat": 2548,
      "Ġparamet": 2549,
      "_comment": 2550,
      "Ġtalk": 2551,
      "urther": 2552,
      "Ġelect": 2553,
      "Ġvalues": 2554,
      "._": 2555,
      "test": 2556,
      "pm": 2557,
      "ee": 2558,
      "sigma": 2559,
      "å¹´": 2560,
      "Ġdone": 2561,
      "ued": 2562,
      "vec": 2563,
      "âĢĻve": 2564,
      "Ġenc": 2565,
      "comp": 2566,
      "Ã£o": 2567,
      "Ġalong": 2568,
      "aper": 2569,
      ".set": 2570,
      "ips": 2571,
      "Ġ///": 2572,
      "Ã©e": 2573,
      "ley": 2574,
      "Ġtimes": 2575,
      "Ġcertain": 2576,
      "Ġroom": 2577,
      "ĥ½": 2578,
      "za": 2579,
      "Qu": 2580,
      "../": 2581,
      "Im": 2582,
      "aring": 2583,
      "Ġincluding": 2584,
      "scri": 2585,
      "Ġmove": 2586,
      "ially": 2587,
      "!ĊĊ": 2588,
      "public": 2589,
      "Ġdans": 2590,
      "icro": 2591,
      "ÑģÐº": 2592,
      "type": 2593,
      "alf": 2594,
      "Ġtable": 2595,
      "Ġparticular": 2596,
      "'re": 2597,
      "Ġprogram": 2598,
      "ohn": 2599,
      "Ġdays": 2600,
      "Ð½Ð¸": 2601,
      "ended": 2602,
      "'Ċ": 2603,
      "éĢ": 2604,
      "ĠPr": 2605,
      "oad": 2606,
      "è¡": 2607,
      "acy": 2608,
      "ands": 2609,
      ".b": 2610,
      "ĠdÃ©": 2611,
      "éģ": 2612,
      "Ġprom": 2613,
      ").ĊĊ": 2614,
      "ension": 2615,
      "ĠÐ½Ð°": 2616,
      "ysis": 2617,
      "angu": 2618,
      "iod": 2619,
      "UT": 2620,
      "rect": 2621,
      "lish": 2622,
      "-in": 2623,
      "Ġmarket": 2624,
      "On": 2625,
      "oud": 2626,
      "Ġthough": 2627,
      "Ġteam": 2628,
      "Ġwind": 2629,
      "viron": 2630,
      "ED": 2631,
      "most": 2632,
      "Ġflo": 2633,
      "Ġschool": 2634,
      "Ġintern": 2635,
      "Ġir": 2636,
      "tes": 2637,
      "atures": 2638,
      "Ġlaw": 2639,
      "ilar": 2640,
      "What": 2641,
      "Sh": 2642,
      "Ġcu": 2643,
      "ison": 2644,
      "à¦¾": 2645,
      "Ġann": 2646,
      "aim": 2647,
      "ÑĪ": 2648,
      "ithub": 2649,
      "big": 2650,
      "Ġavailable": 2651,
      "olution": 2652,
      "Ġexist": 2653,
      "Ġbreak": 2654,
      "Ġrespect": 2655,
      "Ġleast": 2656,
      "with": 2657,
      "Ġstudy": 2658,
      "cript": 2659,
      "Ġtook": 2660,
      "Ġune": 2661,
      "ĠHowever": 2662,
      "ened": 2663,
      "imal": 2664,
      "Å¡": 2665,
      "Object": 2666,
      "veral": 2667,
      "Ġ&&": 2668,
      "iversity": 2669,
      "aterial": 2670,
      "Ġcame": 2671,
      "off": 2672,
      "Ġsus": 2673,
      "ĠMy": 2674,
      "å¸": 2675,
      "Ġfore": 2676,
      "ocal": 2677,
      "Ġhom": 2678,
      "Ġmax": 2679,
      "Ġwhe": 2680,
      "using": 2681,
      "ella": 2682,
      ".C": 2683,
      "åº": 2684,
      "ä¸ª": 2685,
      "ĠSystem": 2686,
      "Ġ:=": 2687,
      "ÑĢÐµ": 2688,
      "Error": 2689,
      "Ġsuccess": 2690,
      "Set": 2691,
      "Ġcustom": 2692,
      "ayer": 2693,
      "ĠUser": 2694,
      "Ġenergy": 2695,
      "cho": 2696,
      "pper": 2697,
      "include": 2698,
      "Ġrepresent": 2699,
      "gen": 2700,
      "ules": 2701,
      "å¯": 2702,
      "Ñİ": 2703,
      "mon": 2704,
      "ros": 2705,
      "='": 2706,
      "ks": 2707,
      "lobal": 2708,
      "Ġmaking": 2709,
      "Ġerr": 2710,
      "ources": 2711,
      "Ð¾Ð³": 2712,
      "Ġgeneral": 2713,
      "Ġlik": 2714,
      "Â«": 2715,
      "vo": 2716,
      "å¤§": 2717,
      "Ġnight": 2718,
      "ĠWith": 2719,
      "Ġart": 2720,
      "Ġtoget": 2721,
      "uration": 2722,
      "ĠMan": 2723,
      "AME": 2724,
      "Ġtogether": 2725,
      "Ġport": 2726,
      "Ġgover": 2727,
      "Re": 2728,
      "Ð°ÑĤ": 2729,
      "ĠCar": 2730,
      "{align": 2731,
      "ple": 2732,
      "Ġda": 2733,
      "iver": 2734,
      "mber": 2735,
      "ties": 2736,
      "Ġshort": 2737,
      "ĠUS": 2738,
      "yl": 2739,
      "Ãł": 2740,
      "++": 2741,
      "OT": 2742,
      "oll": 2743,
      "Ġsym": 2744,
      "ored": 2745,
      "sk": 2746,
      "orth": 2747,
      "side": 2748,
      ".\"ĊĊ": 2749,
      "Text": 2750,
      "leq": 2751,
      "ĠMe": 2752,
      "Ġ->": 2753,
      "ĠÎ": 2754,
      "AD": 2755,
      "Ġmind": 2756,
      "ried": 2757,
      "':": 2758,
      "ĠGod": 2759,
      "Ġaccess": 2760,
      "Ġquestion": 2761,
      "Ġhaving": 2762,
      "Ġimpro": 2763,
      "theta": 2764,
      "Ġdue": 2765,
      "gamma": 2766,
      "Ġindiv": 2767,
      "Ġdeterm": 2768,
      "Ġsingle": 2769,
      "ĠĠĠĠĠĠĠĠĠĠĠĠĠĠĠĠĠĠĠĠĠĠĠĠĠĠĠ": 2770,
      "Ġhig": 2771,
      "Ġmeans": 2772,
      "Ġrange": 2773,
      "http": 2774,
      "Ġonce": 2775,
      "lt": 2776,
      "ackage": 2777,
      "ãĤĭ": 2778,
      "Ġben": 2779,
      "_M": 2780,
      "Ġcomb": 2781,
      "Ġsays": 2782,
      "Ġrequire": 2783,
      "Ġarea": 2784,
      "Ġhref": 2785,
      "^\\": 2786,
      "oin": 2787,
      ")}": 2788,
      "ĠBr": 2789,
      "ULL": 2790,
      "Ġexc": 2791,
      ".M": 2792,
      ").Ċ": 2793,
      "irl": 2794,
      "Ġspecific": 2795,
      "Ġhouse": 2796,
      "ÅĤ": 2797,
      "ones": 2798,
      "ideo": 2799,
      "Ġsignific": 2800,
      "Ġdom": 2801,
      "ios": 2802,
      "Ġcontent": 2803,
      "Ġmot": 2804,
      "å¿": 2805,
      "Ind": 2806,
      "ãģŁ": 2807,
      "www": 2808,
      "\\n": 2809,
      ">ĊĊ": 2810,
      "æĢ": 2811,
      "cle": 2812,
      "Ġcompany": 2813,
      "ana": 2814,
      "Ġitem": 2815,
      "Ġred": 2816,
      "****************": 2817,
      "........": 2818,
      "file": 2819,
      "opt": 2820,
      "Ġimage": 2821,
      "Ġcourse": 2822,
      "pping": 2823,
      "Ġservice": 2824,
      "illion": 2825,
      "dep": 2826,
      "Exception": 2827,
      "Ġweight": 2828,
      "rodu": 2829,
      "irt": 2830,
      "Ġge": 2831,
      "uation": 2832,
      "roid": 2833,
      "ĠMay": 2834,
      "Ġstrong": 2835,
      "Ġabs": 2836,
      "Ġmor": 2837,
      "Ġworking": 2838,
      "Ġposition": 2839,
      "Ġ},Ċ": 2840,
      "Ġdoesn": 2841,
      "ida": 2842,
      "Ġrad": 2843,
      "Ġlooking": 2844,
      "ibr": 2845,
      "empt": 2846,
      "ĠÑĤ": 2847,
      ".D": 2848,
      "Ġdesc": 2849,
      "Ġprim": 2850,
      "Ġpast": 2851,
      "Ġseveral": 2852,
      "Ġoften": 2853,
      "from": 2854,
      "rs": 2855,
      "ury": 2856,
      "uture": 2857,
      "Ġbegin": 2858,
      "Ġasked": 2859,
      "elle": 2860,
      "Ġaccount": 2861,
      "Ġ{čĊ": 2862,
      "Ġlater": 2863,
      "çĽ": 2864,
      "Ġbound": 2865,
      "ÑĢÐ¸": 2866,
      "],Ċ": 2867,
      "Requ": 2868,
      "ä¸Ń": 2869,
      "Ġgen": 2870,
      "Ġdefin": 2871,
      "ĠDo": 2872,
      "\")Ċ": 2873,
      "utes": 2874,
      "}čĊ": 2875,
      "Ġpract": 2876,
      "Ġcharacter": 2877,
      "itch": 2878,
      "Ġ\\\\Ċ": 2879,
      "},Ċ": 2880,
      "Ġeng": 2881,
      "Ġeither": 2882,
      "ike": 2883,
      "Ġcontain": 2884,
      "andom": 2885,
      "Ġtarget": 2886,
      "Ġdiv": 2887,
      "ä¸Ĭ": 2888,
      "ĠÐ¼": 2889,
      "mat": 2890,
      "ÐµÐ»": 2891,
      "ÄĹ": 2892,
      "wards": 2893,
      "Ġreason": 2894,
      "ĠThen": 2895,
      "ĠChrist": 2896,
      "Ġpoints": 2897,
      "Ġknown": 2898,
      "print": 2899,
      "ĠSc": 2900,
      "aken": 2901,
      "ĠPar": 2902,
      "Ġjob": 2903,
      "Ġwalk": 2904,
      "Ð¶": 2905,
      "rho": 2906,
      "omet": 2907,
      "Ġrequest": 2908,
      "Ġprint": 2909,
      "Ph": 2910,
      "resh": 2911,
      "now": 2912,
      "Ġversion": 2913,
      "Ġmass": 2914,
      "cer": 2915,
      "Ġpress": 2916,
      "ãĥ³": 2917,
      "Ġcolor": 2918,
      "ograph": 2919,
      "ĠNot": 2920,
      "fty": 2921,
      "Ġdiscuss": 2922,
      "Ġchildren": 2923,
      "(self": 2924,
      "Ġinput": 2925,
      "____": 2926,
      "çľ": 2927,
      "IM": 2928,
      "Test": 2929,
      "Ġactually": 2930,
      "ha": 2931,
      "Ġtre": 2932,
      "Ġexperience": 2933,
      "Ġseen": 2934,
      "'ve": 2935,
      "Ġprovide": 2936,
      "orld": 2937,
      "hy": 2938,
      "Ġcomplet": 2939,
      "ĠCan": 2940,
      "but": 2941,
      "Ġever": 2942,
      "èĩ": 2943,
      "mathrm": 2944,
      "Ġsoft": 2945,
      "ĠEng": 2946,
      "Ġwent": 2947,
      "delta": 2948,
      "File": 2949,
      "Ġindividual": 2950,
      "sq": 2951,
      ".st": 2952,
      "ribution": 2953,
      "lected": 2954,
      "iction": 2955,
      "tau": 2956,
      "With": 2957,
      "Or": 2958,
      "iving": 2959,
      ".in": 2960,
      "atter": 2961,
      "à§ĩ": 2962,
      "$-": 2963,
      "ender": 2964,
      "ret": 2965,
      "lem": 2966,
      "Ġtreat": 2967,
      "ĠÐ·": 2968,
      "Ġacross": 2969,
      "word": 2970,
      "-g": 2971,
      "Ġlooked": 2972,
      "odes": 2973,
      "max": 2974,
      "ili": 2975,
      "conom": 2976,
      "Ġrepl": 2977,
      "verage": 2978,
      "ising": 2979,
      "vironment": 2980,
      "[]": 2981,
      "è¦": 2982,
      "ators": 2983,
      "ãĤĴ": 2984,
      "ajor": 2985,
      "ëĭ¤": 2986,
      "rl": 2987,
      "Item": 2988,
      "uk": 2989,
      "Ġmeasure": 2990,
      "Time": 2991,
      "She": 2992,
      "ìĹ": 2993,
      "\\<": 2994,
      "Ġgovern": 2995,
      "Ġmoney": 2996,
      "ortun": 2997,
      "Ġhuman": 2998,
      "bed": 2999,
      "error": 3000,
      "/s": 3001,
      "Ġtotal": 3002,
      "Ġdoing": 3003,
      "Ġear": 3004,
      "Ġant": 3005,
      "imate": 3006,
      "NAME": 3007,
      "UR": 3008,
      "Ġnat": 3009,
      "(n": 3010,
      "Le": 3011,
      "Ġfix": 3012,
      "iqu": 3013,
      "ged": 3014,
      "AB": 3015,
      "ĠThese": 3016,
      "((": 3017,
      "agement": 3018,
      ");čĊ": 3019,
      "Ġplus": 3020,
      "ils": 3021,
      "Ġcreat": 3022,
      "{t": 3023,
      "Ġvan": 3024,
      "color": 3025,
      ".org": 3026,
      "\"ĊĊ": 3027,
      "times": 3028,
      "è§": 3029,
      "Ġsugg": 3030,
      ")čĊ": 3031,
      "å½": 3032,
      "æĿ¥": 3033,
      "Ãº": 3034,
      "Is": 3035,
      "osp": 3036,
      "Ġcomput": 3037,
      "HE": 3038,
      "Ġair": 3039,
      "Ġtw": 3040,
      "Ġblock": 3041,
      "_j": 3042,
      "Ġfac": 3043,
      "Ġ×": 3044,
      "Ġnetwork": 3045,
      "quad": 3046,
      "ĠIN": 3047,
      "ï¼ļ": 3048,
      "ids": 3049,
      "Ġanything": 3050,
      "istic": 3051,
      "Ġmo": 3052,
      "How": 3053,
      "Ġsocial": 3054,
      "\".": 3055,
      "refore": 3056,
      "_name": 3057,
      "[i": 3058,
      "hing": 3059,
      "ram": 3060,
      "Ġbecome": 3061,
      "Ġlink": 3062,
      "ĠCont": 3063,
      "Ġ*Ċ": 3064,
      "Key": 3065,
      "));Ċ": 3066,
      "Ġothers": 3067,
      "ĠSte": 3068,
      "Ġassoci": 3069,
      "ÐµÑĤ": 3070,
      "ourn": 3071,
      "Ġorg": 3072,
      "ï¼ī": 3073,
      "apter": 3074,
      "lood": 3075,
      "Ġpain": 3076,
      "ãģĦ": 3077,
      "Ġfun": 3078,
      "aged": 3079,
      "IL": 3080,
      "though": 3081,
      "ï¼Ī": 3082,
      ".e": 3083,
      "');Ċ": 3084,
      "_F": 3085,
      "Ġ$(": 3086,
      "Ð¾Ð½": 3087,
      "Ġsimilar": 3088,
      "Äħ": 3089,
      "Ġaction": 3090,
      "Ġmeet": 3091,
      "iple": 3092,
      "ured": 3093,
      "eren": 3094,
      "Ġgetting": 3095,
      "-st": 3096,
      "idence": 3097,
      "ĠIm": 3098,
      "De": 3099,
      "Ġbar": 3100,
      "æł": 3101,
      "Ġfood": 3102,
      "icense": 3103,
      "Ġcas": 3104,
      "_k": 3105,
      "sec": 3106,
      "ival": 3107,
      "mary": 3108,
      "ãģĹ": 3109,
      "?âĢĿĊ": 3110,
      "(p": 3111,
      "ÂłÂłÂłÂł": 3112,
      "Ġrelations": 3113,
      "anguage": 3114,
      "ĠÐ³": 3115,
      "ãģ¨": 3116,
      "åİ": 3117,
      ":ĊĊĊ": 3118,
      "ges": 3119,
      "ici": 3120,
      "ribute": 3121,
      "Ġdoor": 3122,
      "}(\\": 3123,
      "Ġfa": 3124,
      "Ġconfig": 3125,
      "book": 3126,
      "ĠEr": 3127,
      "All": 3128,
      "ibility": 3129,
      "Ġspecial": 3130,
      "trans": 3131,
      "orem": 3132,
      "ãģ¯": 3133,
      "Ġsound": 3134,
      "Ġtold": 3135,
      "/m": 3136,
      "|\\": 3137,
      "Ġalg": 3138,
      "Ġquick": 3139,
      "Ġheart": 3140,
      "SS": 3141,
      "oken": 3142,
      "space": 3143,
      "Ġtrad": 3144,
      "Ġpred": 3145,
      "/*": 3146,
      "position": 3147,
      "uth": 3148,
      "Ġneg": 3149,
      "Ġloss": 3150,
      "xi": 3151,
      "Ġinvol": 3152,
      "icy": 3153,
      "va": 3154,
      "Ġsource": 3155,
      "Ġyet": 3156,
      ">username": 3157,
      "Ġwait": 3158,
      "-h": 3159,
      "Ġmakes": 3160,
      "respond": 3161,
      "rows": 3162,
      "Ġstyle": 3163,
      "Ġfoc": 3164,
      "'ll": 3165,
      "ĠOne": 3166,
      "(m": 3167,
      "Ġinclude": 3168,
      "State": 3169,
      "oper": 3170,
      "aff": 3171,
      "bt": 3172,
      "èµ": 3173,
      "ĠJe": 3174,
      "ogn": 3175,
      "Ġcommon": 3176,
      "Ġsens": 3177,
      "\";Ċ": 3178,
      "II": 3179,
      "-Ċ": 3180,
      "ney": 3181,
      "ä¸º": 3182,
      "æ²": 3183,
      "usion": 3184,
      "sel": 3185,
      "Ġindic": 3186,
      "Ġphys": 3187,
      "ken": 3188,
      "df": 3189,
      "amples": 3190,
      "Not": 3191,
      "plit": 3192,
      "irm": 3193,
      "pons": 3194,
      "fect": 3195,
      "Ġyoung": 3196,
      "Ġphot": 3197,
      "Ġresponse": 3198,
      "ĠBy": 3199,
      "Ġcomo": 3200,
      "ĠJohn": 3201,
      "illed": 3202,
      "Ġdefault": 3203,
      "partial": 3204,
      "Ġ<<": 3205,
      "--------------------------------": 3206,
      "Ġcirc": 3207,
      "Ġclose": 3208,
      "Ġdire": 3209,
      "There": 3210,
      "ille": 3211,
      "den": 3212,
      "âĢĺ": 3213,
      "Ġprevious": 3214,
      "Ġperiod": 3215,
      "ĠGu": 3216,
      "ober": 3217,
      "OM": 3218,
      "ags": 3219,
      "Ġfail": 3220,
      ".P": 3221,
      "Ġwords": 3222,
      "Ġau": 3223,
      "iet": 3224,
      "Ġpotential": 3225,
      "Ġ\\(": 3226,
      "imum": 3227,
      "ëĬ": 3228,
      "Ġsignificant": 3229,
      "ĠUniversity": 3230,
      "Ġblack": 3231,
      "ync": 3232,
      "Ġten": 3233,
      "ynam": 3234,
      "App": 3235,
      "Ġmi": 3236,
      "Ġdri": 3237,
      "empl": 3238,
      "nection": 3239,
      "ĠÐ±": 3240,
      "ç§": 3241,
      ">čĊ": 3242,
      "infty": 3243,
      "\\label": 3244,
      "ging": 3245,
      "Ġsimple": 3246,
      "Ġpri": 3247,
      "Ġfront": 3248,
      "score": 3249,
      "Ġwanted": 3250,
      "Ġtrying": 3251,
      "ĠChe": 3252,
      "Å¾": 3253,
      "Ġsuggest": 3254,
      "ãģ¦": 3255,
      "inn": 3256,
      "ä»¥": 3257,
      "Ġinitial": 3258,
      "ìĿ´": 3259,
      "Ġcompon": 3260,
      "anks": 3261,
      "mail": 3262,
      "EM": 3263,
      "config": 3264,
      "Ġlearn": 3265,
      "Ġonline": 3266,
      "éĹ": 3267,
      "So": 3268,
      "ĠDes": 3269,
      "Score": 3270,
      "ster": 3271,
      "ĠHis": 3272,
      "ename": 3273,
      "Ġcrit": 3274,
      "ura": 3275,
      "Ġdest": 3276,
      "Ġidea": 3277,
      "arr": 3278,
      "ĠĠĠĠĠĠĠĠĠĠĠĠ": 3279,
      "Ġste": 3280,
      "ius": 3281,
      "eqref": 3282,
      "ilt": 3283,
      "ĠGe": 3284,
      "Request": 3285,
      "Ġland": 3286,
      "ogle": 3287,
      "Ġpage": 3288,
      "inary": 3289,
      "Ġsolution": 3290,
      "åĪ°": 3291,
      "Ġrequired": 3292,
      "fer": 3293,
      "]{": 3294,
      "-w": 3295,
      "ING": 3296,
      "Ġnothing": 3297,
      "_r": 3298,
      "ĠInst": 3299,
      "void": 3300,
      "Ġsem": 3301,
      "rew": 3302,
      "Ġmit": 3303,
      "Ġtou": 3304,
      "Ġbelow": 3305,
      "\\\\": 3306,
      "æĥ": 3307,
      "Ġimplement": 3308,
      "rown": 3309,
      "asing": 3310,
      "light": 3311,
      "ste": 3312,
      "Ġalmost": 3313,
      "Ġwomen": 3314,
      "Ġtoday": 3315,
      "]ĊĊ": 3316,
      "ico": 3317,
      "Ġarray": 3318,
      "][": 3319,
      "')Ċ": 3320,
      "Ġpub": 3321,
      "Ð¸ÑĤ": 3322,
      "LO": 3323,
      "Int": 3324,
      "acc": 3325,
      "åĴ": 3326,
      "At": 3327,
      "cher": 3328,
      "Ġsomeone": 3329,
      "çİ": 3330,
      "Ġdeal": 3331,
      "Ġwhether": 3332,
      "cdot": 3333,
      "Ġconc": 3334,
      "perty": 3335,
      "AG": 3336,
      "nder": 3337,
      "à¥": 3338,
      "lin": 3339,
      "gu": 3340,
      "When": 3341,
      "Ġstarted": 3342,
      "icult": 3343,
      "ĠRet": 3344,
      "umer": 3345,
      "ilit": 3346,
      "Ġwhole": 3347,
      "Ġhalf": 3348,
      "Ã¨re": 3349,
      "Ġoutput": 3350,
      "result": 3351,
      "ological": 3352,
      "ama": 3353,
      "Ġzu": 3354,
      "ii": 3355,
      "_D": 3356,
      "Ġmajor": 3357,
      "ÃŁ": 3358,
      "Ġparent": 3359,
      "lim": 3360,
      "omega": 3361,
      "ĠAb": 3362,
      "ĠRep": 3363,
      "ĠAm": 3364,
      "sem": 3365,
      "Ġsil": 3366,
      "zy": 3367,
      "Ð¸Ð½": 3368,
      "Ġinside": 3369,
      "User": 3370,
      "ĠAnswer": 3371,
      "url": 3372,
      "'d": 3373,
      "Config": 3374,
      "fully": 3375,
      "','": 3376,
      "Info": 3377,
      "éĿ": 3378,
      "Ġrate": 3379,
      "ano": 3380,
      "ached": 3381,
      "aciÃ³n": 3382,
      "ëĬĶ": 3383,
      "Form": 3384,
      "github": 3385,
      "ales": 3386,
      "æ³": 3387,
      "Pl": 3388,
      "Ġma": 3389,
      "çī": 3390,
      "Ġexact": 3391,
      ".html": 3392,
      "à¦¾à¦": 3393,
      "Ġang": 3394,
      "ires": 3395,
      "Ġfurther": 3396,
      "depend": 3397,
      "Ġvon": 3398,
      "Ġshown": 3399,
      "Ġoffic": 3400,
      "åĩº": 3401,
      "Ġconnect": 3402,
      "lished": 3403,
      "Man": 3404,
      "arning": 3405,
      "\\right": 3406,
      "see": 3407,
      "ara": 3408,
      "ãģ§": 3409,
      "Ġterms": 3410,
      "ias": 3411,
      "Ġfall": 3412,
      "Ġbase": 3413,
      "fil": 3414,
      "Ġresearch": 3415,
      "mod": 3416,
      "unk": 3417,
      "Ġcult": 3418,
      ".âĢĿĊĊ": 3419,
      "nu": 3420,
      "ayout": 3421,
      "Ġpur": 3422,
      "ä»¬": 3423,
      "Ġamong": 3424,
      "ĠGet": 3425,
      "body": 3426,
      "Ġfuture": 3427,
      "isf": 3428,
      "UN": 3429,
      "âĢĿĊ": 3430,
      "Ġdev": 3431,
      "chie": 3432,
      "aced": 3433,
      "PE": 3434,
      "ressed": 3435,
      "Ġemploy": 3436,
      "medi": 3437,
      "US": 3438,
      "Ġload": 3439,
      "Ġmap": 3440,
      "list": 3441,
      "Of": 3442,
      "ĠPol": 3443,
      "Ġmaterial": 3444,
      "ruction": 3445,
      "Ġclear": 3446,
      "gs": 3447,
      "hr": 3448,
      "Ġcut": 3449,
      "ĠEd": 3450,
      "(d": 3451,
      "fl": 3452,
      "orts": 3453,
      "ops": 3454,
      "Ġna": 3455,
      "Ġword": 3456,
      "Ġanalysis": 3457,
      "Add": 3458,
      "ĠCent": 3459,
      "Ġera": 3460,
      "ĠIl": 3461,
      "/p": 3462,
      "function": 3463,
      "iding": 3464,
      "/d": 3465,
      "æĬ": 3466,
      "Ġneeds": 3467,
      "';Ċ": 3468,
      "Ġmiss": 3469,
      "raft": 3470,
      "Ġintegr": 3471,
      "ĠMed": 3472,
      "Ġess": 3473,
      "ĠOb": 3474,
      "Ġcountry": 3475,
      "Ġsite": 3476,
      "Ã¼r": 3477,
      "Ġmessage": 3478,
      "Ġwasn": 3479,
      "Ġeverything": 3480,
      "Ġissue": 3481,
      "Ġstep": 3482,
      "Ġri": 3483,
      "ĠÑ": 3484,
      "Ġshows": 3485,
      "pace": 3486,
      "ottom": 3487,
      "Ġindex": 3488,
      "Ġinstall": 3489,
      "Ġaw": 3490,
      "Ġdas": 3491,
      "Ġregard": 3492,
      "php": 3493,
      "Ġdevelopment": 3494,
      "########": 3495,
      "ades": 3496,
      "Ġhigher": 3497,
      "Ġfund": 3498,
      "ĠLet": 3499,
      "Ġknew": 3500,
      "roups": 3501,
      ".R": 3502,
      "Ġbehind": 3503,
      "iol": 3504,
      "Ġneeded": 3505,
      "Ġamount": 3506,
      "stance": 3507,
      "Ġnecess": 3508,
      "Ġreview": 3509,
      "avor": 3510,
      "Ġassert": 3511,
      "Ġhowever": 3512,
      "roller": 3513,
      "Ġlimit": 3514,
      "Ġ__": 3515,
      "////////": 3516,
      "Ġquest": 3517,
      "Ġpaper": 3518,
      "Class": 3519,
      "orith": 3520,
      "Ġearly": 3521,
      "}$,": 3522,
      "Delta": 3523,
      "ãģĮ": 3524,
      "Ġapproach": 3525,
      "Ġpolit": 3526,
      "å°±": 3527,
      "ÂłĊ": 3528,
      "={": 3529,
      "Ġ\\\\": 3530,
      "Ġdeg": 3531,
      "Ġstd": 3532,
      "uly": 3533,
      "Ġhor": 3534,
      "ENT": 3535,
      "ĠComm": 3536,
      "ĠComp": 3537,
      "Ġpull": 3538,
      "content": 3539,
      "Ġstory": 3540,
      "ball": 3541,
      "ternal": 3542,
      "ained": 3543,
      "Ġnormal": 3544,
      "utions": 3545,
      "à¸": 3546,
      "ĠCo": 3547,
      "IG": 3548,
      ".w": 3549,
      "men": 3550,
      "api": 3551,
      "Ġcorrespond": 3552,
      "Ġoriginal": 3553,
      "ĠAfter": 3554,
      "Ġeasy": 3555,
      "Ġclos": 3556,
      "vis": 3557,
      "ĠNe": 3558,
      "tilde": 3559,
      "Ġflow": 3560,
      "script": 3561,
      "Ġfelt": 3562,
      "ĠAdd": 3563,
      "ä¹ĭ": 3564,
      "Ġauthor": 3565,
      "lock": 3566,
      "alt": 3567,
      "Ġhy": 3568,
      "Ġhands": 3569,
      "thon": 3570,
      "ĠNULL": 3571,
      "Ġsaw": 3572,
      "ãĢĢ": 3573,
      "Ġbad": 3574,
      "Ġquant": 3575,
      "Ð½Ð¾": 3576,
      "Ġlower": 3577,
      "åĳ": 3578,
      "gress": 3579,
      "_h": 3580,
      ".add": 3581,
      ".n": 3582,
      "abor": 3583,
      "input": 3584,
      "}}\\": 3585,
      "ĠPer": 3586,
      "Ġexpected": 3587,
      "bit": 3588,
      "(),": 3589,
      "ĠAmerican": 3590,
      "Ġdocument": 3591,
      "cy": 3592,
      "ening": 3593,
      "Ġago": 3594,
      "Ġworks": 3595,
      "Ġlength": 3596,
      "CH": 3597,
      "Path": 3598,
      "Ġtaking": 3599,
      "Ġpick": 3600,
      "Ġcomplex": 3601,
      "hel": 3602,
      "Ġperformance": 3603,
      "AA": 3604,
      "_B": 3605,
      "Ġminutes": 3606,
      "Ġnear": 3607,
      "Ġmatter": 3608,
      "ĠHer": 3609,
      "Ġrather": 3610,
      "Ġbenef": 3611,
      "Service": 3612,
      "Ġou": 3613,
      "Ġmatch": 3614,
      "sequ": 3615,
      "================": 3616,
      "Ġq": 3617,
      "Ġtaken": 3618,
      "Ġactiv": 3619,
      "åľ°": 3620,
      "ores": 3621,
      "Ġcontext": 3622,
      "Ġgirl": 3623,
      "Ġprop": 3624,
      "ĠrÃ©": 3625,
      "Ġlive": 3626,
      "annel": 3627,
      "unch": 3628,
      "Ġtool": 3629,
      "tings": 3630,
      "Event": 3631,
      "uer": 3632,
      "Ġprotect": 3633,
      "Ġvarious": 3634,
      "Be": 3635,
      "Context": 3636,
      "å±": 3637,
      "Ã©n": 3638,
      "Ġturned": 3639,
      "bra": 3640,
      "Ġsearch": 3641,
      "ites": 3642,
      "ĠUnited": 3643,
      "eter": 3644,
      "Ġrecord": 3645,
      "Ġcannot": 3646,
      "Ġrisk": 3647,
      "åĮ": 3648,
      "Ġproperty": 3649,
      "mm": 3650,
      "img": 3651,
      "Ġhttps": 3652,
      "Ġens": 3653,
      "æĶ": 3654,
      "Ġsection": 3655,
      "æĹ¶": 3656,
      "Ġseries": 3657,
      "Ġwin": 3658,
      "mar": 3659,
      "Ġcity": 3660,
      "Ġdim": 3661,
      "âĢľI": 3662,
      "Ġindust": 3663,
      "Ġ\"\"": 3664,
      "itting": 3665,
      "Ġdefined": 3666,
      "*}Ċ": 3667,
      "Ġchanges": 3668,
      "Ġwr": 3669,
      "å¦": 3670,
      "joy": 3671,
      "Ġprobably": 3672,
      "Ġblood": 3673,
      "åĴĮ": 3674,
      "åŃĲ": 3675,
      "apt": 3676,
      "Ġmodels": 3677,
      ".L": 3678,
      "éĤ": 3679,
      "ategory": 3680,
      "Ġcomes": 3681,
      "ĉĉĉĉĉ": 3682,
      "ĠCal": 3683,
      "];Ċ": 3684,
      "cm": 3685,
      "anced": 3686,
      "Field": 3687,
      "ula": 3688,
      "umb": 3689,
      "Ġsn": 3690,
      "ette": 3691,
      "Ġbehav": 3692,
      "ride": 3693,
      "ĠJan": 3694,
      "amente": 3695,
      "mo": 3696,
      "ĠčĊ": 3697,
      "Ġdisplay": 3698,
      "That": 3699,
      "æĹ¥": 3700,
      "\"></": 3701,
      "ilities": 3702,
      "ocation": 3703,
      "Ġground": 3704,
      "gl": 3705,
      "izing": 3706,
      "Ġstructure": 3707,
      "Ġconditions": 3708,
      "wise": 3709,
      "ĠÑĥ": 3710,
      "#include": 3711,
      "Ġrole": 3712,
      "uments": 3713,
      "Des": 3714,
      "Ġentire": 3715,
      "Ġbelieve": 3716,
      "/b": 3717,
      "Ġhours": 3718,
      "Ġwatch": 3719,
      "Ġseason": 3720,
      "Ġpa": 3721,
      "Ġtask": 3722,
      "OS": 3723,
      "verse": 3724,
      "Ġsex": 3725,
      "Ġ/**Ċ": 3726,
      "ĠYork": 3727,
      "jo": 3728,
      "aving": 3729,
      "Ġwidth": 3730,
      "Ġservices": 3731,
      "Ġauf": 3732,
      "ises": 3733,
      "ĠGo": 3734,
      "Ġmonths": 3735,
      "Ġcoll": 3736,
      "iam": 3737,
      ")=": 3738,
      "Ġfeatures": 3739,
      "aging": 3740,
      "pecially": 3741,
      "{pro": 3742,
      "Ġinstead": 3743,
      "Ġum": 3744,
      "uel": 3745,
      "());Ċ": 3746,
      "ledge": 3747,
      "create": 3748,
      "Ð¸Ñı": 3749,
      "Ġter": 3750,
      "ĠMin": 3751,
      "ĠFl": 3752,
      "Ġcases": 3753,
      "Ġcamp": 3754,
      "atform": 3755,
      "Ġintrodu": 3756,
      "Ġstay": 3757,
      "ication": 3758,
      "ponent": 3759,
      "Model": 3760,
      "iddle": 3761,
      "Ġbed": 3762,
      "ĠAss": 3763,
      "Ġdam": 3764,
      "Ġcondition": 3765,
      "ä¸ĭ": 3766,
      "Ġsepar": 3767,
      "Ġartic": 3768,
      "Äį": 3769,
      "Ġdig": 3770,
      "Ent": 3771,
      "older": 3772,
      "My": 3773,
      "ÄĻ": 3774,
      "Let": 3775,
      "ä¹Ł": 3776,
      "Ġoptions": 3777,
      "Ġrelationship": 3778,
      "pen": 3779,
      "ĠSu": 3780,
      "åı¯": 3781,
      "Def": 3782,
      "Ġpie": 3783,
      "Ġbackground": 3784,
      "çĿ": 3785,
      "Ġbring": 3786,
      "OL": 3787,
      "Ġ||": 3788,
      "Ġmir": 3789,
      "itted": 3790,
      "Ġquite": 3791,
      "è¦ģ": 3792,
      "Ð¾Ð¹": 3793,
      "reed": 3794,
      "Ġmembers": 3795,
      "New": 3796,
      "Ġdifficult": 3797,
      "image": 3798,
      "Ġexec": 3799,
      "ä¼ļ": 3800,
      "ounter": 3801,
      "éĻ": 3802,
      "ework": 3803,
      "Ġsou": 3804,
      "Ġvia": 3805,
      "Ġfive": 3806,
      "sl": 3807,
      "æ°": 3808,
      "éģĵ": 3809,
      "Ġgovernment": 3810,
      "ĠmÃ¡s": 3811,
      "ka": 3812,
      "Ġenvironment": 3813,
      "kt": 3814,
      "rec": 3815,
      "earch": 3816,
      "define": 3817,
      "Ġfriend": 3818,
      "Ġadded": 3819,
      "Index": 3820,
      "eral": 3821,
      "ĠAc": 3822,
      "åī": 3823,
      "Ġdescrib": 3824,
      "room": 3825,
      "Ġeconom": 3826,
      "sqrt": 3827,
      "Ġstudents": 3828,
      "Ð°ÑĢ": 3829,
      "ĠĠĠĠĠĠĠĠĠĠ": 3830,
      ")(": 3831,
      "æĦ": 3832,
      "Ġsequ": 3833,
      "check": 3834,
      "dis": 3835,
      "_N": 3836,
      "tait": 3837,
      "point": 3838,
      "(c": 3839,
      "ĠWill": 3840,
      "Ġsense": 3841,
      "Ġwrite": 3842,
      "pty": 3843,
      "Ġapplication": 3844,
      "agn": 3845,
      "igned": 3846,
      "çĶ¨": 3847,
      "Ġwoman": 3848,
      "chi": 3849,
      "ĠSome": 3850,
      "astic": 3851,
      "Ġclaim": 3852,
      "Array": 3853,
      "Ġcorrect": 3854,
      "Ġhimself": 3855,
      "{R": 3856,
      "Ġpref": 3857,
      "è¯´": 3858,
      "ĠReg": 3859,
      "Ġstop": 3860,
      "æŀ": 3861,
      "chan": 3862,
      "Ġsimply": 3863,
      "igen": 3864,
      "Ġaddress": 3865,
      "From": 3866,
      "icon": 3867,
      "Ġrespons": 3868,
      "urope": 3869,
      "amed": 3870,
      "Ġseems": 3871,
      "ĠAug": 3872,
      "ĠCor": 3873,
      "Ġcommunity": 3874,
      "Ġvideo": 3875,
      "ĠList": 3876,
      "Ġcam": 3877,
      "Ġoption": 3878,
      "IP": 3879,
      "ĠST": 3880,
      "reate": 3881,
      "Ġvisit": 3882,
      "Ġwhite": 3883,
      "Ġextra": 3884,
      "Ġdeep": 3885,
      "Ġfunctions": 3886,
      "CC": 3887,
      "Ġí": 3888,
      "Ġlui": 3889,
      ".T": 3890,
      "Ġgraph": 3891,
      "Ġpers": 3892,
      "Ð½Ñĭ": 3893,
      "Ð¾ÑĤ": 3894,
      "Ġcalcul": 3895,
      "ĠMore": 3896,
      "Ġpod": 3897,
      "tre": 3898,
      "Ġcy": 3899,
      "ĠĠĠĠĊ": 3900,
      "Ġsystems": 3901,
      ".čĊ": 3902,
      "Ġdate": 3903,
      "ãģª": 3904,
      "}[": 3905,
      "map": 3906,
      "Ġnode": 3907,
      "Ġsie": 3908,
      "!Ċ": 3909,
      "Val": 3910,
      "Ã¥": 3911,
      "abase": 3912,
      "leep": 3913,
      "mega": 3914,
      "Ġincrease": 3915,
      "Ġlikely": 3916,
      "Ġsoon": 3917,
      "ief": 3918,
      "olean": 3919,
      "Ð»Ð°": 3920,
      "Ġdark": 3921,
      "Element": 3922,
      "ATE": 3923,
      "ĠMon": 3924,
      "Ġestab": 3925,
      "Ġhost": 3926,
      "ÂŃ": 3927,
      "Ġhistory": 3928,
      "Ġslow": 3929,
      "Equ": 3930,
      "char": 3931,
      "Ġinstance": 3932,
      "Ġpersonal": 3933,
      "Ġsatisf": 3934,
      "Ġage": 3935,
      "lick": 3936,
      "lying": 3937,
      "aves": 3938,
      "Ġdeath": 3939,
      "Over": 3940,
      "ï¿": 3941,
      "Ġtemper": 3942,
      "Ġcross": 3943,
      "selves": 3944,
      "lib": 3945,
      "[\"": 3946,
      "ĠInt": 3947,
      "down": 3948,
      "ensity": 3949,
      "Ġdouble": 3950,
      "Ġsort": 3951,
      "graph": 3952,
      "Ġill": 3953,
      "PI": 3954,
      "Ġlabel": 3955,
      "-r": 3956,
      "ä¿": 3957,
      "Ġspect": 3958,
      "anch": 3959,
      "Ġhot": 3960,
      "ba": 3961,
      "Ġvalid": 3962,
      "ÐºÐ°": 3963,
      "Ġrunning": 3964,
      "uit": 3965,
      "ĠBo": 3966,
      "Ġtraining": 3967,
      "Ġstandard": 3968,
      "ï¿½": 3969,
      "sy": 3970,
      "ados": 3971,
      "Ġtrack": 3972,
      "Out": 3973,
      "Ġachie": 3974,
      "Ġtitle": 3975,
      "Node": 3976,
      "Ġsubject": 3977,
      "\\,": 3978,
      "-y": 3979,
      "Map": 3980,
      "Code": 3981,
      "èĩª": 3982,
      "Ġnatural": 3983,
      "Ġproblems": 3984,
      "artment": 3985,
      "index": 3986,
      "-to": 3987,
      "Ġisn": 3988,
      "~~": 3989,
      "olds": 3990,
      "orage": 3991,
      "Ġconstant": 3992,
      "Ġwebs": 3993,
      "uses": 3994,
      "èĥ½": 3995,
      "ĠAN": 3996,
      "Ġcommand": 3997,
      "ĠIS": 3998,
      "come": 3999,
      "Ġcompet": 4000,
      "ĠPart": 4001,
      "Ġfire": 4002,
      "tty": 4003,
      "Ġbox": 4004,
      "place": 4005,
      "Fr": 4006,
      "Ġaccept": 4007,
      "ĠWorld": 4008,
      "Up": 4009,
      "Ġperfect": 4010,
      "Ã¢": 4011,
      "des": 4012,
      "ĠĠĠĠĠĠĠĠĠĠĠĠĠĠĠĠĠĠĠĠĠĠĠĠĠĠĠĠĠĠĠ": 4013,
      "Ġproducts": 4014,
      "ython": 4015,
      "Ġquality": 4016,
      "Ġ/*": 4017,
      "Ġattack": 4018,
      "\",\"": 4019,
      "soft": 4020,
      "Ġhope": 4021,
      "curity": 4022,
      "Ġcreated": 4023,
      "Ġchall": 4024,
      "Ġenjoy": 4025,
      "Ð»Ð¸": 4026,
      "Ġsche": 4027,
      "exp": 4028,
      "Ġtu": 4029,
      "version": 4030,
      "time": 4031,
      "ony": 4032,
      "airs": 4033,
      "...ĊĊ": 4034,
      "Ġmethods": 4035,
      "Ġimprove": 4036,
      "Result": 4037,
      "nown": 4038,
      "ceed": 4039,
      "Ġweb": 4040,
      "indows": 4041,
      "posed": 4042,
      "^*": 4043,
      "psi": 4044,
      "ê°": 4045,
      "elling": 4046,
      "link": 4047,
      "ĠNow": 4048,
      "\\left": 4049,
      ".âĢĻ": 4050,
      ",čĊ": 4051,
      "fra": 4052,
      "Ġnil": 4053,
      "Ġpan": 4054,
      "Ġmother": 4055,
      "Ġhttp": 4056,
      "Ġupon": 4057,
      "OD": 4058,
      "Ġà¤": 4059,
      "Ġfrequ": 4060,
      "Ġcoming": 4061,
      "Ġmillion": 4062,
      "ĠEm": 4063,
      "Ġlat": 4064,
      "Ġeduc": 4065,
      "ê³": 4066,
      "ãĤ¹": 4067,
      "-S": 4068,
      "Ġ)Ċ": 4069,
      "Ġjava": 4070,
      "Ġcolumn": 4071,
      "oo": 4072,
      "ä½ł": 4073,
      "epsilon": 4074,
      "icle": 4075,
      "Ad": 4076,
      "ĠÐ¡": 4077,
      "-n": 4078,
      "Ġfoot": 4079,
      "''": 4080,
      "atal": 4081,
      "ĠDr": 4082,
      "$Ċ": 4083,
      "Ġnicht": 4084,
      "Ġsich": 4085,
      "Ġanswer": 4086,
      "Ġ($": 4087,
      "loat": 4088,
      "Ð¾Ð³Ð¾": 4089,
      "Ġpositive": 4090,
      "\\\\Ċ": 4091,
      "field": 4092,
      "ML": 4093,
      "\\sub": 4094,
      "board": 4095,
      "Ä±": 4096,
      "Ġforward": 4097,
      "like": 4098,
      "Ġfollows": 4099,
      "æİ": 4100,
      "Ġoffer": 4101,
      "ibrary": 4102,
      "just": 4103,
      "request": 4104,
      "uy": 4105,
      "ĠPe": 4106,
      "Ġlonger": 4107,
      "Ġimm": 4108,
      "();ĊĊ": 4109,
      "Ġissues": 4110,
      ".x": 4111,
      "Ġassum": 4112,
      "ny": 4113,
      "Ġheight": 4114,
      "object": 4115,
      "OP": 4116,
      "Ġcouldn": 4117,
      "Ġprice": 4118,
      "{eqn": 4119,
      "\"><": 4120,
      "more": 4121,
      "Size": 4122,
      "ese": 4123,
      "Ġbeaut": 4124,
      "Ġeval": 4125,
      "Ġautom": 4126,
      "Ġcontinu": 4127,
      "Ġtypes": 4128,
      "Ġpack": 4129,
      "Ġprec": 4130,
      "-M": 4131,
      "ita": 4132,
      "idge": 4133,
      "Ġih": 4134,
      "Ġcomplete": 4135,
      "anger": 4136,
      "ming": 4137,
      "Ġgames": 4138,
      "Ref": 4139,
      ".app": 4140,
      "Ġaccording": 4141,
      "Ġdepend": 4142,
      "Ġtried": 4143,
      "aul": 4144,
      "ĠLicense": 4145,
      "Message": 4146,
      "Ġrandom": 4147,
      "çĶŁ": 4148,
      "ç¬": 4149,
      "Hand": 4150,
      "idered": 4151,
      "ĠhabÃŃa": 4152,
      "ersion": 4153,
      "Ġwrong": 4154,
      "Ġmis": 4155,
      "Ġos": 4156,
      "Ġeveryone": 4157,
      "Ġseg": 4158,
      "Gamma": 4159,
      "ena": 4160,
      "Ġheld": 4161,
      "ja": 4162,
      "Ġpatients": 4163,
      "maz": 4164,
      "Ġassociated": 4165,
      "bor": 4166,
      "export": 4167,
      "ris": 4168,
      "Ġhat": 4169,
      "Ġfast": 4170,
      "xim": 4171,
      "Ġoutside": 4172,
      ".B": 4173,
      "ras": 4174,
      "Omega": 4175,
      "ald": 4176,
      "sole": 4177,
      "valid": 4178,
      "ymbol": 4179,
      "Ġlanguage": 4180,
      "Ġvoice": 4181,
      "Ġ...": 4182,
      "Ġgrand": 4183,
      "sim": 4184,
      "rightarrow": 4185,
      "Comp": 4186,
      "true": 4187,
      "oke": 4188,
      "ĠChar": 4189,
      "ĠJust": 4190,
      "ĠSet": 4191,
      "ĠIntern": 4192,
      "ìĿĦ": 4193,
      "Ġsix": 4194,
      "hib": 4195,
      "Ġmais": 4196,
      "ĠStates": 4197,
      "ĠOf": 4198,
      "IR": 4199,
      "zz": 4200,
      "endo": 4201,
      "ione": 4202,
      "cha": 4203,
      "ĠĠĠĠĠĠĠĠĠĠĠĠĠĠĠĠĠ": 4204,
      "ìĹĲ": 4205,
      "ĠMark": 4206,
      "Ġstates": 4207,
      "éĤ£": 4208,
      "\\)": 4209,
      "Ġleave": 4210,
      "Ġparameters": 4211,
      "inate": 4212,
      "Ġrelated": 4213,
      "Ġdistribution": 4214,
      "{S": 4215,
      "ario": 4216,
      "Ġespecially": 4217,
      "that": 4218,
      "cing": 4219,
      "Ġfeature": 4220,
      "Log": 4221,
      "serv": 4222,
      "ĠState": 4223,
      "path": 4224,
      "Ġheav": 4225,
      "Response": 4226,
      "Ġshare": 4227,
      "ĠBar": 4228,
      "ãĤĮ": 4229,
      "æĭ": 4230,
      "Ġselect": 4231,
      "!!": 4232,
      "Ġep": 4233,
      "çĦ": 4234,
      "/c": 4235,
      "Ð½Ð°": 4236,
      "Ġconsidered": 4237,
      "_type": 4238,
      "Ġbuilding": 4239,
      "Ð¾Ñģ": 4240,
      "ente": 4241,
      "ãĥ¼ãĥ": 4242,
      "Ġcontr": 4243,
      "El": 4244,
      "Ġcontinue": 4245,
      "oph": 4246,
      "Ġmusic": 4247,
      "ĠDep": 4248,
      "ĠGener": 4249,
      "Ġprovided": 4250,
      "chen": 4251,
      "itional": 4252,
      "âĢĻÃ©": 4253,
      "UL": 4254,
      "Ġinvestig": 4255,
      "Ġ+=": 4256,
      "ÐµÐ¼": 4257,
      "Ġparticip": 4258,
      "oi": 4259,
      "ĠTrans": 4260,
      ".pro": 4261,
      "sing": 4262,
      "/j": 4263,
      "ĠMr": 4264,
      "tered": 4265,
      "}^{\\": 4266,
      "}=": 4267,
      "Ġevents": 4268,
      "_g": 4269,
      "Ġopportun": 4270,
      "Ġremain": 4271,
      "Ġfather": 4272,
      "Ġestim": 4273,
      "Ġcontact": 4274,
      "{{": 4275,
      "ora": 4276,
      "æĽ": 4277,
      "ournal": 4278,
      "Ġclean": 4279,
      "Ġcard": 4280,
      "ito": 4281,
      "ĉĊ": 4282,
      "ç«": 4283,
      "Ġconsist": 4284,
      "dom": 4285,
      ".r": 4286,
      "Ġmultiple": 4287,
      "Ġappear": 4288,
      "{C": 4289,
      "}_{\\": 4290,
      "Ġcause": 4291,
      "istr": 4292,
      "Ġfriends": 4293,
      "Ġaffect": 4294,
      "Ġmedia": 4295,
      "Ġcopy": 4296,
      "achine": 4297,
      "Ġcompan": 4298,
      "EX": 4299,
      "Ġaud": 4300,
      "$.Ċ": 4301,
      "Ġcenter": 4302,
      "ĠEurope": 4303,
      "idad": 4304,
      "Ġhon": 4305,
      "aur": 4306,
      "Ġgave": 4307,
      "cast": 4308,
      "One": 4309,
      "change": 4310,
      ">>": 4311,
      "Ġglobal": 4312,
      "\\_": 4313,
      "Ġimpact": 4314,
      "Ġpercent": 4315,
      "orithm": 4316,
      "Ġupdate": 4317,
      "ĠAust": 4318,
      "}$.": 4319,
      "Ġitself": 4320,
      "Ġregion": 4321,
      "Ġbuy": 4322,
      "itude": 4323,
      "Trans": 4324,
      "Ġmer": 4325,
      "ensive": 4326,
      "ĠÐ°": 4327,
      "Ġusually": 4328,
      "Ġmes": 4329,
      "pose": 4330,
      "è¾": 4331,
      "lier": 4332,
      "urt": 4333,
      "Ġdro": 4334,
      "ĠRec": 4335,
      "len": 4336,
      ".js": 4337,
      "Ġtakes": 4338,
      "ĠAct": 4339,
      "Ñī": 4340,
      "Ġmention": 4341,
      "Äĥ": 4342,
      "ĠNone": 4343,
      "æľĪ": 4344,
      "Ġsurface": 4345,
      "Ġmatrix": 4346,
      "Ġthird": 4347,
      "Ġquestions": 4348,
      "ĠMc": 4349,
      "Ġnews": 4350,
      "Ġlearning": 4351,
      "Ġeffects": 4352,
      "cret": 4353,
      "<br": 4354,
      "Table": 4355,
      "ocol": 4356,
      "çĿĢ": 4357,
      "\"]": 4358,
      "Ġavec": 4359,
      "assert": 4360,
      "lied": 4361,
      "{figure": 4362,
      "ĠAut": 4363,
      "Ġlib": 4364,
      "Ġwall": 4365,
      "util": 4366,
      "å¾Ĺ": 4367,
      "ĠApr": 4368,
      "Ġperm": 4369,
      "acing": 4370,
      "Ġgrad": 4371,
      "mt": 4372,
      "Ġanyone": 4373,
      "ĠNational": 4374,
      ",ĊĊ": 4375,
      "Ġsoftware": 4376,
      "mark": 4377,
      "{d": 4378,
      "Ġrecogn": 4379,
      "_L": 4380,
      "ĠYour": 4381,
      "abled": 4382,
      "iled": 4383,
      "ĠRev": 4384,
      "ĠDon": 4385,
      "gn": 4386,
      "ä¾": 4387,
      "uilder": 4388,
      "Ġheard": 4389,
      "Ġlines": 4390,
      "fort": 4391,
      "Ġgroups": 4392,
      "ights": 4393,
      "si": 4394,
      "ĠCount": 4395,
      ".png": 4396,
      "Ġregular": 4397,
      "ĠOct": 4398,
      "à¦°": 4399,
      "db": 4400,
      "Ġdraw": 4401,
      "ences": 4402,
      "ĠHar": 4403,
      "åĽ½": 4404,
      "query": 4405,
      "xy": 4406,
      "uffer": 4407,
      "istance": 4408,
      "open": 4409,
      "å¯¹": 4410,
      "Ġbi": 4411,
      "abs": 4412,
      "zen": 4413,
      "Ġnote": 4414,
      "$$Ċ": 4415,
      "inally": 4416,
      "_data": 4417,
      "Ġcells": 4418,
      "à¦¿": 4419,
      "otal": 4420,
      "ptions": 4421,
      "(b": 4422,
      "æ¯": 4423,
      "Ġtreatment": 4424,
      "Ġunique": 4425,
      "Ġfit": 4426,
      "dered": 4427,
      "ĠÐŁ": 4428,
      "Ġple": 4429,
      "ancial": 4430,
      "Ġelements": 4431,
      "TR": 4432,
      "iven": 4433,
      "ining": 4434,
      "Ġ);Ċ": 4435,
      "urrent": 4436,
      "æĮ": 4437,
      "Ġfiles": 4438,
      "uary": 4439,
      "iting": 4440,
      "aint": 4441,
      "ham": 4442,
      "amework": 4443,
      "{s": 4444,
      "Ġways": 4445,
      "oute": 4446,
      "rav": 4447,
      "ini": 4448,
      "[\\": 4449,
      "Client": 4450,
      "ĉpublic": 4451,
      "åĢ": 4452,
      "Ġexpression": 4453,
      "Ġproperties": 4454,
      "amespace": 4455,
      "Ġconcern": 4456,
      "({": 4457,
      "alle": 4458,
      "comes": 4459,
      "åĲİ": 4460,
      "ĠSee": 4461,
      "lication": 4462,
      "è¡Į": 4463,
      "ì§": 4464,
      "struct": 4465,
      "Date": 4466,
      "Att": 4467,
      "args": 4468,
      "ĉc": 4469,
      "Ġpretty": 4470,
      "èĢĮ": 4471,
      "Wh": 4472,
      "Ġmyself": 4473,
      ".F": 4474,
      "iem": 4475,
      "ĠDis": 4476,
      "Ġ()": 4477,
      "Ġrecomm": 4478,
      "Ġaverage": 4479,
      "Ġutil": 4480,
      "Ed": 4481,
      "haps": 4482,
      "Ġnp": 4483,
      "Ã¨s": 4484,
      "summary": 4485,
      "æµ": 4486,
      "Ġfem": 4487,
      "idden": 4488,
      "Ġimmedi": 4489,
      "_v": 4490,
      "center": 4491,
      "aker": 4492,
      "Ġfigure": 4493,
      "mes": 4494,
      "ĠCity": 4495,
      "OF": 4496,
      "#define": 4497,
      "ĠFrom": 4498,
      "ĠâĪ": 4499,
      "Ġlevels": 4500,
      "psilon": 4501,
      "Ġphone": 4502,
      "Ġsqu": 4503,
      "hood": 4504,
      "Ġdetails": 4505,
      "uge": 4506,
      "çŁ": 4507,
      "flow": 4508,
      "gar": 4509,
      "obile": 4510,
      "Ġcover": 4511,
      "agon": 4512,
      "Ġdifference": 4513,
      "Ġround": 4514,
      "Ġtax": 4515,
      "Ġcred": 4516,
      ")$,": 4517,
      "Ġbegan": 4518,
      "pu": 4519,
      "ĠRed": 4520,
      "Ġich": 4521,
      "Ġpict": 4522,
      "Ġadditional": 4523,
      "Ġ(!": 4524,
      "Color": 4525,
      "ĠVer": 4526,
      "oe": 4527,
      "ube": 4528,
      "Ġful": 4529,
      "Ġimag": 4530,
      "riev": 4531,
      "clud": 4532,
      "lege": 4533,
      "IV": 4534,
      "func": 4535,
      "web": 4536,
      "rie": 4537,
      "osition": 4538,
      "Ġforce": 4539,
      "Ġetc": 4540,
      "nb": 4541,
      "Ġsin": 4542,
      "æīĢ": 4543,
      "-based": 4544,
      "iful": 4545,
      "Ġwindow": 4546,
      "ĠDav": 4547,
      "Ġtheory": 4548,
      "ptember": 4549,
      "istics": 4550,
      "Ġswe": 4551,
      "cap": 4552,
      "ians": 4553,
      "Ġdecl": 4554,
      "${": 4555,
      "./": 4556,
      "ĠTest": 4557,
      "Ġquickly": 4558,
      "Ġavoid": 4559,
      "Ġclient": 4560,
      "Ġtrou": 4561,
      "Ġconstruct": 4562,
      "actions": 4563,
      "Ġentre": 4564,
      "Ġist": 4565,
      "Ġusers": 4566,
      "_w": 4567,
      "Ġprovides": 4568,
      "Ġattention": 4569,
      "ague": 4570,
      "ki": 4571,
      "Mod": 4572,
      "Ġknowledge": 4573,
      "Inter": 4574,
      "emplate": 4575,
      "irit": 4576,
      "La": 4577,
      "ector": 4578,
      ")^": 4579,
      "Ġdeb": 4580,
      "Ġindepend": 4581,
      "æľ¬": 4582,
      "Ġfilm": 4583,
      "coming": 4584,
      "Ġ{ĊĊ": 4585,
      "Ġgives": 4586,
      "Ġpal": 4587,
      "atory": 4588,
      "Ġtransform": 4589,
      "lam": 4590,
      "Ġcry": 4591,
      "icrosoft": 4592,
      "ĠStud": 4593,
      "table": 4594,
      "uster": 4595,
      "Ġur": 4596,
      "Ġhair": 4597,
      "Ġarm": 4598,
      "Ġchoice": 4599,
      "}.Ċ": 4600,
      "aling": 4601,
      "which": 4602,
      "Ġsrc": 4603,
      "ded": 4604,
      "default": 4605,
      "(this": 4606,
      "izer": 4607,
      "Ð¸Ð¹": 4608,
      "ete": 4609,
      "Ġwonder": 4610,
      "Ġbal": 4611,
      "py": 4612,
      "Ġliving": 4613,
      "Ġstatus": 4614,
      "Ġfont": 4615,
      "Ġwriting": 4616,
      "Ġlost": 4617,
      "ĠSm": 4618,
      "åĵ": 4619,
      "ï¼Ł": 4620,
      "Ġdemand": 4621,
      "ributed": 4622,
      "Ġsurpr": 4623,
      "Rep": 4624,
      "Ġprior": 4625,
      "rangle": 4626,
      "^{(": 4627,
      "Ġmix": 4628,
      "Ġfavor": 4629,
      "Ġsto": 4630,
      "geq": 4631,
      "ĠÐ·Ð°": 4632,
      "Ġ]": 4633,
      "Box": 4634,
      "à§į": 4635,
      "íķĺ": 4636,
      "Ġals": 4637,
      "æĪĲ": 4638,
      "è¿ĩ": 4639,
      "cos": 4640,
      "ements": 4641,
      "ĉp": 4642,
      "Ġspeed": 4643,
      "Ġgrowth": 4644,
      "Ġrev": 4645,
      "-C": 4646,
      "acher": 4647,
      "Ġworth": 4648,
      "upport": 4649,
      "active": 4650,
      "Ġinflu": 4651,
      "Ġ});Ċ": 4652,
      "ĠÂł": 4653,
      "ql": 4654,
      "Ġdistance": 4655,
      "Ġstra": 4656,
      "Ġexcept": 4657,
      "Ġobtained": 4658,
      "Ĥ¬": 4659,
      "Ġstore": 4660,
      "Ġmargin": 4661,
      "ĠClass": 4662,
      "Sub": 4663,
      "cor": 4664,
      "sm": 4665,
      "ĠAg": 4666,
      "Ġserver": 4667,
      "Ġhac": 4668,
      "iers": 4669,
      "Ġrat": 4670,
      "Ã¡n": 4671,
      "otes": 4672,
      "ĠSouth": 4673,
      "Ġattempt": 4674,
      "Pr": 4675,
      "Count": 4676,
      "âĢĻest": 4677,
      "ĠÑĩ": 4678,
      "Ġsituation": 4679,
      "ifier": 4680,
      "ua": 4681,
      "Ġfine": 4682,
      ".W": 4683,
      "Ġpattern": 4684,
      "Ġdirectly": 4685,
      "Ġ;": 4686,
      "çº": 4687,
      "ĠHere": 4688,
      "Ġrecent": 4689,
      "ares": 4690,
      "CE": 4691,
      "ĠÂ»": 4692,
      "ĠWar": 4693,
      "ĠÐĴ": 4694,
      "tex": 4695,
      "Ġnumbers": 4696,
      "éĥ½": 4697,
      "Ġnecessary": 4698,
      "rend": 4699,
      "Ġpen": 4700,
      "éĺ": 4701,
      "vare": 4702,
      "{x": 4703,
      "Ġwebsite": 4704,
      "Ġparameter": 4705,
      "erg": 4706,
      "ĠVal": 4707,
      "Ġpu": 4708,
      "Ġelle": 4709,
      "Ġthrow": 4710,
      ">(": 4711,
      "Ġcompl": 4712,
      ",'": 4713,
      "adding": 4714,
      "aches": 4715,
      "Ġstar": 4716,
      "Ð²Ð°": 4717,
      "ĠFig": 4718,
      "Ġpopular": 4719,
      "Ġuns": 4720,
      "Ġbes": 4721,
      "ìĦ": 4722,
      "Ġdemon": 4723,
      "Ġreach": 4724,
      "{eqnarray": 4725,
      "Ġremov": 4726,
      "ĠSw": 4727,
      "Ġcatch": 4728,
      "Manager": 4729,
      "Ġroad": 4730,
      ".čĊčĊ": 4731,
      "raint": 4732,
      "Big": 4733,
      "Ġwritten": 4734,
      "è´": 4735,
      "ÐµÐ´": 4736,
      "js": 4737,
      "Ġlooks": 4738,
      "Ġapply": 4739,
      "Reg": 4740,
      "aries": 4741,
      "Ġproduction": 4742,
      "Ġìŀ": 4743,
      "Ġlate": 4744,
      "Ġenh": 4745,
      "Ġunit": 4746,
      "Ġoccur": 4747,
      "illing": 4748,
      "UE": 4749,
      "Ġcos": 4750,
      "Ġimpl": 4751,
      "Ġhit": 4752,
      "level": 4753,
      "---": 4754,
      "Ġmechan": 4755,
      "option": 4756,
      "state": 4757,
      "PS": 4758,
      "Ġfocus": 4759,
      "ilter": 4760,
      "iday": 4761,
      "ĠPres": 4762,
      "Rec": 4763,
      "eline": 4764,
      ".log": 4765,
      "ĠCO": 4766,
      "Ġsy": 4767,
      "urg": 4768,
      "Ġcapt": 4769,
      "Ġfight": 4770,
      "Ġstreng": 4771,
      "Ġdynam": 4772,
      "arp": 4773,
      "Ã³n": 4774,
      "iation": 4775,
      "Ġreported": 4776,
      "Ġeffective": 4777,
      "äºİ": 4778,
      "urb": 4779,
      "Input": 4780,
      "orph": 4781,
      "Ġliter": 4782,
      "format": 4783,
      "å¦Ĥ": 4784,
      "Ġpredict": 4785,
      "Ġtowards": 4786,
      "iques": 4787,
      "Ġready": 4788,
      "ĠBrit": 4789,
      "ners": 4790,
      "Ġyourself": 4791,
      "äºĭ": 4792,
      "ĠRef": 4793,
      "ti": 4794,
      "ä½ľ": 4795,
      "Ð¾Ðº": 4796,
      "ĠQuestion": 4797,
      "enu": 4798,
      "Ġdise": 4799,
      "size": 4800,
      "Ġauto": 4801,
      "Ġobserv": 4802,
      "Ġqual": 4803,
      "-B": 4804,
      "Ġprofess": 4805,
      "Gr": 4806,
      "Now": 4807,
      "Ġchoose": 4808,
      "oles": 4809,
      "éĩĮ": 4810,
      "Ġarr": 4811,
      "Ġthus": 4812,
      "Ġones": 4813,
      "rought": 4814,
      "Ġbecame": 4815,
      "Ġment": 4816,
      "ĠAng": 4817,
      "Ġdead": 4818,
      "ĠDef": 4819,
      "Ã´": 4820,
      "ĠÏ": 4821,
      "CL": 4822,
      "\\\"": 4823,
      "Ġsav": 4824,
      "Do": 4825,
      "Ġexactly": 4826,
      "IF": 4827,
      "Â°": 4828,
      "oring": 4829,
      "ĠData": 4830,
      "éĥ": 4831,
      "Ġviol": 4832,
      "Ġcook": 4833,
      "ky": 4834,
      "ello": 4835,
      "ĠMat": 4836,
      "Ġcomment": 4837,
      "ãĤ¤": 4838,
      "Ġscreen": 4839,
      "ĠSec": 4840,
      "Ġsuff": 4841,
      "aled": 4842,
      "Ġtravel": 4843,
      "ãĥ»": 4844,
      "Ġstri": 4845,
      "Ġbien": 4846,
      "HT": 4847,
      "Ġdirection": 4848,
      ".is": 4849,
      "nes": 4850,
      "ailed": 4851,
      "oms": 4852,
      "ĠOur": 4853,
      "Ġball": 4854,
      "cember": 4855,
      "Ġsave": 4856,
      "Ġdru": 4857,
      "augh": 4858,
      "Act": 4859,
      "Ġses": 4860,
      "Image": 4861,
      "Ġexam": 4862,
      "çĦ¶": 4863,
      "Ġareas": 4864,
      "\\<^": 4865,
      "Ġengine": 4866,
      "ela": 4867,
      "æĸ¹": 4868,
      "Ġband": 4869,
      "Ġmulti": 4870,
      "atives": 4871,
      "éĽ": 4872,
      "ĠĠĠĠĠĠĠĠĠĠĠĠĠĠ": 4873,
      "illa": 4874,
      "Ġindustry": 4875,
      "Ġoil": 4876,
      "Ġequation": 4877,
      "Ġcab": 4878,
      "Ġsecurity": 4879,
      "Ġabsol": 4880,
      "ĠGerm": 4881,
      "_pro": 4882,
      "Ġbool": 4883,
      "aly": 4884,
      "ĠMarch": 4885,
      "aa": 4886,
      "Ġcompared": 4887,
      "Ġnumer": 4888,
      "Ġlocation": 4889,
      "`,": 4890,
      "block": 4891,
      "ben": 4892,
      "Read": 4893,
      "attle": 4894,
      "{A": 4895,
      "\":\"": 4896,
      "Ġhear": 4897,
      "Ġmal": 4898,
      "/C": 4899,
      "Ġconv": 4900,
      "Status": 4901,
      "ln": 4902,
      "erences": 4903,
      "Ġeasily": 4904,
      "ÑĦ": 4905,
      "ameter": 4906,
      "Ġdos": 4907,
      "top": 4908,
      "varphi": 4909,
      "Ġdog": 4910,
      "Ġvector": 4911,
      "PL": 4912,
      "textbf": 4913,
      "Ġanaly": 4914,
      "Ġclosed": 4915,
      "Ġcouple": 4916,
      "Ġreceived": 4917,
      "Ġthemselves": 4918,
      "Group": 4919,
      "Ġmorning": 4920,
      "Ġcompletely": 4921,
      "Ġsample": 4922,
      "Ġfinally": 4923,
      "Ġshall": 4924,
      "Ġreve": 4925,
      "ĠÐļ": 4926,
      "_x": 4927,
      "æĻ": 4928,
      "Ġsec": 4929,
      "_list": 4930,
      "ipe": 4931,
      "Ġnature": 4932,
      "client": 4933,
      "ĠAcc": 4934,
      "Ġdevice": 4935,
      "Ġlarg": 4936,
      "{M": 4937,
      "Ġupd": 4938,
      "title": 4939,
      "çĻ": 4940,
      "},\\": 4941,
      "asc": 4942,
      "ÑģÑı": 4943,
      "acity": 4944,
      "Gener": 4945,
      "ĠAugust": 4946,
      "atur": 4947,
      "event": 4948,
      ".)": 4949,
      "ouble": 4950,
      "Ġincluded": 4951,
      "package": 4952,
      "Ġfixed": 4953,
      "Ġrow": 4954,
      "pected": 4955,
      "They": 4956,
      "Ġgas": 4957,
      "rep": 4958,
      "Ġrele": 4959,
      "ensor": 4960,
      "ls": 4961,
      "Ġvirt": 4962,
      "Ġtown": 4963,
      "ĠÂ¿": 4964,
      "ãģ£": 4965,
      "Ġprep": 4966,
      "Ġmut": 4967,
      "_R": 4968,
      "Ġmess": 4969,
      "Ġstudies": 4970,
      "istry": 4971,
      "aught": 4972,
      "ovember": 4973,
      "Ġpero": 4974,
      "ellow": 4975,
      "izes": 4976,
      "ë¥": 4977,
      "ĠNorth": 4978,
      "uct": 4979,
      "Ġremember": 4980,
      "Ġarticle": 4981,
      "ĠUp": 4982,
      ".to": 4983,
      "zer": 4984,
      "Ġhet": 4985,
      "Sc": 4986,
      "fficient": 4987,
      "../../": 4988,
      "ociety": 4989,
      "std": 4990,
      "varepsilon": 4991,
      "ns": 4992,
      "ria": 4993,
      "aily": 4994,
      "ocket": 4995,
      "ondon": 4996,
      "Ġfactor": 4997,
      "Ġcru": 4998,
      "Ġ\\,": 4999,
      "ĠCons": 5000,
      "Ġthinking": 5001,
      "True": 5002,
      "Ġplatform": 5003,
      "inst": 5004,
      "oto": 5005,
      "...Ċ": 5006,
      "Ġdescribed": 5007,
      "Ġphysical": 5008,
      "Ġax": 5009,
      "under": 5010,
      "çĤ": 5011,
      ".sh": 5012,
      "actory": 5013,
      "ady": 5014,
      "known": 5015,
      "Ġpurch": 5016,
      "NA": 5017,
      "non": 5018,
      "EL": 5019,
      "lor": 5020,
      "static": 5021,
      "Ġborder": 5022,
      "{B": 5023,
      "Ġwat": 5024,
      "Ġitems": 5025,
      "ãĥ«": 5026,
      "Ġsaf": 5027,
      "post": 5028,
      "gt": 5029,
      "ĠStr": 5030,
      "ë¡": 5031,
      "emp": 5032,
      "(a": 5033,
      "Ġmanagement": 5034,
      "Ġtechnology": 5035,
      "ĠFirst": 5036,
      "Ġtemperature": 5037,
      "roy": 5038,
      "Ġtim": 5039,
      "ĠĊĊĊ": 5040,
      "(i": 5041,
      "}}Ċ": 5042,
      "ĠJune": 5043,
      "lation": 5044,
      "æ³ķ": 5045,
      "Ġprinc": 5046,
      "ĠSince": 5047,
      "{F": 5048,
      "reet": 5049,
      "ÑĢÑĥ": 5050,
      "After": 5051,
      "çĲ": 5052,
      "ĠFe": 5053,
      "Ġign": 5054,
      "_V": 5055,
      "Ġarch": 5056,
      "Ġcompanies": 5057,
      "rief": 5058,
      "Ġcontains": 5059,
      "Ġpressure": 5060,
      "Ġseemed": 5061,
      "enty": 5062,
      "Ġactivity": 5063,
      "ĠApril": 5064,
      "contain": 5065,
      "ERT": 5066,
      "iti": 5067,
      "height": 5068,
      "stract": 5069,
      "Ġimages": 5070,
      "Ġeen": 5071,
      "Ã²": 5072,
      "-P": 5073,
      "Ġallows": 5074,
      "Title": 5075,
      "_H": 5076,
      "åŃ¦": 5077,
      "Comm": 5078,
      "ĠSim": 5079,
      "ously": 5080,
      "host": 5081,
      "ĠFeb": 5082,
      "Ġ((": 5083,
      "{P": 5084,
      "Ġtoward": 5085,
      "ategy": 5086,
      "ounds": 5087,
      "ĠPat": 5088,
      "ĠHol": 5089,
      "arily": 5090,
      "Ġadmin": 5091,
      "Ġexperiment": 5092,
      "([": 5093,
      "Ġproof": 5094,
      "raction": 5095,
      "Ġmode": 5096,
      "bd": 5097,
      "Ġroll": 5098,
      "Ġuses": 5099,
      "Ġpet": 5100,
      "ĠNet": 5101,
      "ĠRuss": 5102,
      "Ġfing": 5103,
      "Ġconcept": 5104,
      "Ġcompar": 5105,
      "Ġinn": 5106,
      "Ġcomponent": 5107,
      "Ġreading": 5108,
      "ĠSub": 5109,
      "ãģĭ": 5110,
      "encies": 5111,
      "Ġmemory": 5112,
      "Ġchance": 5113,
      "ĠWest": 5114,
      "Ġing": 5115,
      "Ġarriv": 5116,
      "emph": 5117,
      "Ġessential": 5118,
      "&\\": 5119,
      "ĠWhile": 5120,
      "ä¹Ī": 5121,
      "){Ċ": 5122,
      "Ġscale": 5123,
      "Ġaccur": 5124,
      "Ġord": 5125,
      "uns": 5126,
      "ocr": 5127,
      "ulations": 5128,
      "FO": 5129,
      "Ġsend": 5130,
      "_IN": 5131,
      "omb": 5132,
      "Ġsleep": 5133,
      "å£": 5134,
      "Ġzero": 5135,
      "Sp": 5136,
      "acht": 5137,
      "Ġweeks": 5138,
      "-pro": 5139,
      "ypes": 5140,
      "ÃŃan": 5141,
      "omen": 5142,
      "å¤ļ": 5143,
      "Ġplease": 5144,
      "Ġtout": 5145,
      "Ġrelease": 5146,
      ")$.": 5147,
      "Ġsaying": 5148,
      "ĠâĢ¦": 5149,
      "Ġplayers": 5150,
      "Ã¶r": 5151,
      "aron": 5152,
      "Ġvariable": 5153,
      "Ġinform": 5154,
      "Ġanim": 5155,
      "Ġoffice": 5156,
      "tÃ©": 5157,
      "Ð°Ðº": 5158,
      "ĠìĿ": 5159,
      "Ġphase": 5160,
      "Ġmember": 5161,
      "Ġmaintain": 5162,
      "System": 5163,
      "Ġdecision": 5164,
      "Em": 5165,
      "iny": 5166,
      "Ġaltern": 5167,
      "Ġwhose": 5168,
      "ĠPark": 5169,
      "Ġsold": 5170,
      "ç½": 5171,
      "ĠKing": 5172,
      "Ġrefer": 5173,
      "Ġexpress": 5174,
      "Ġbehavior": 5175,
      "åīį": 5176,
      "Ġprevent": 5177,
      "ĠAnt": 5178,
      "UM": 5179,
      "Che": 5180,
      "cel": 5181,
      "init": 5182,
      "irth": 5183,
      "adem": 5184,
      "ibly": 5185,
      "Ġaus": 5186,
      "overline": 5187,
      "Ġability": 5188,
      "ìĿĺ": 5189,
      "atively": 5190,
      "ding": 5191,
      "ãģĻ": 5192,
      "ĠSeptember": 5193,
      "Ġfeet": 5194,
      "\\item": 5195,
      "oding": 5196,
      "itter": 5197,
      "Ġtherefore": 5198,
      "Ġsor": 5199,
      "ecause": 5200,
      "Ġcand": 5201,
      "inding": 5202,
      "inner": 5203,
      "nbsp": 5204,
      "Ġedge": 5205,
      "band": 5206,
      "typ": 5207,
      "(new": 5208,
      "/**Ċ": 5209,
      "style": 5210,
      "æ´": 5211,
      "rum": 5212,
      "Ġalone": 5213,
      "else": 5214,
      "Ġstraight": 5215,
      "Aut": 5216,
      "Ġsteps": 5217,
      "Ġprem": 5218,
      "ĠII": 5219,
      "Line": 5220,
      "Me": 5221,
      "Ġparts": 5222,
      "âĶ": 5223,
      "hern": 5224,
      "lich": 5225,
      "Ġplayer": 5226,
      "circ": 5227,
      "Ġok": 5228,
      "ĠOut": 5229,
      "bm": 5230,
      "BC": 5231,
      "oted": 5232,
      "Ġtree": 5233,
      "ĠAre": 5234,
      "ĠMus": 5235,
      "mas": 5236,
      "Ġparty": 5237,
      "(r": 5238,
      "ocs": 5239,
      "Ġchanged": 5240,
      "Ġfeed": 5241,
      "Ġsun": 5242,
      "itation": 5243,
      "ĠJuly": 5244,
      "Button": 5245,
      "output": 5246,
      "ropri": 5247,
      "Ð¼Ð¸": 5248,
      "Ð¾Ð±": 5249,
      "Property": 5250,
      "ldots": 5251,
      "ige": 5252,
      "ugin": 5253,
      "{E": 5254,
      "apan": 5255,
      "Ġproced": 5256,
      "Ġled": 5257,
      "Ġalt": 5258,
      "ĠHigh": 5259,
      "Ġformat": 5260,
      "Ġsolid": 5261,
      "×Ļ": 5262,
      "ĠRem": 5263,
      "é¡": 5264,
      "èĢħ": 5265,
      "Ġobserved": 5266,
      "local": 5267,
      "Ġlinear": 5268,
      "FA": 5269,
      "ffect": 5270,
      "indow": 5271,
      "vey": 5272,
      "Ġbuilt": 5273,
      "Ġpractice": 5274,
      "}ĊĊĊ": 5275,
      "Ġdescription": 5276,
      "Ġconnection": 5277,
      "TER": 5278,
      "').": 5279,
      "SP": 5280,
      "Ð¸Ðµ": 5281,
      "urance": 5282,
      "è¨": 5283,
      "ĠOR": 5284,
      "Ġbur": 5285,
      "å°ı": 5286,
      "ìł": 5287,
      "ãĥª": 5288,
      "select": 5289,
      "iones": 5290,
      "Ġspeak": 5291,
      "caption": 5292,
      "................": 5293,
      "Ġneigh": 5294,
      "ĠBro": 5295,
      "Ġwouldn": 5296,
      "ford": 5297,
      "Ġmaybe": 5298,
      "Ġensure": 5299,
      "])": 5300,
      "ĠID": 5301,
      "Ġcontract": 5302,
      "};Ċ": 5303,
      "Ġconcent": 5304,
      "Ġslight": 5305,
      "Ġfinancial": 5306,
      "å¤©": 5307,
      "çŃ": 5308,
      "ĠÐĲ": 5309,
      "Ġworked": 5310,
      "ãĢĮ": 5311,
      "Ġpolicy": 5312,
      "Ġgoes": 5313,
      "orge": 5314,
      "å®ļ": 5315,
      "ao": 5316,
      "Ġsolutions": 5317,
      "ĠEst": 5318,
      "Ġsong": 5319,
      "Query": 5320,
      "ãĢį": 5321,
      "Ġcurrently": 5322,
      "Ġactual": 5323,
      "istration": 5324,
      "long": 5325,
      "Ġsetting": 5326,
      "æķ°": 5327,
      "ĠJanuary": 5328,
      "éļ": 5329,
      "{D": 5330,
      "idget": 5331,
      "Ġ${\\": 5332,
      "Ġbeautiful": 5333,
      "Call": 5334,
      "ooth": 5335,
      "%%": 5336,
      "åĪĨ": 5337,
      "ĉĉĉĉĉĉĉĉ": 5338,
      "ears": 5339,
      "icient": 5340,
      "è½": 5341,
      "Ġclick": 5342,
      "lear": 5343,
      "Ġsomet": 5344,
      "Ġbrought": 5345,
      "à§įà¦": 5346,
      "wide": 5347,
      "Ġhappened": 5348,
      "su": 5349,
      "cribe": 5350,
      "Ġjud": 5351,
      "Str": 5352,
      "Ġhandle": 5353,
      "Ġveh": 5354,
      "pite": 5355,
      "ĠFigure": 5356,
      "_size": 5357,
      "Ġut": 5358,
      "Ġfields": 5359,
      "Ġexists": 5360,
      "anged": 5361,
      "Ġtro": 5362,
      "erv": 5363,
      "ĠSchool": 5364,
      "Ġhistor": 5365,
      "!--": 5366,
      "Ġblue": 5367,
      "ç¥": 5368,
      "QL": 5369,
      "rieved": 5370,
      "ê°Ģ": 5371,
      "å®¶": 5372,
      "Ġdriv": 5373,
      "ima": 5374,
      "Ġserious": 5375,
      "çľĭ": 5376,
      "ê³ł": 5377,
      "ashing": 5378,
      "ĠÐľ": 5379,
      ".ex": 5380,
      "ÄĽ": 5381,
      "Ġrespectively": 5382,
      "ĠBen": 5383,
      "ensions": 5384,
      "langle": 5385,
      "Ġcorresponding": 5386,
      "pc": 5387,
      "Ġgets": 5388,
      "æ²¡": 5389,
      "Ġavait": 5390,
      "ĠWhy": 5391,
      "bum": 5392,
      "Ġot": 5393,
      "Then": 5394,
      "Ġsubst": 5395,
      "Ġnom": 5396,
      "ĠOF": 5397,
      "tn": 5398,
      "Ġ[Ċ": 5399,
      "?\"": 5400,
      "Ġformer": 5401,
      "âĪ": 5402,
      "Ġfollowed": 5403,
      "-up": 5404,
      "Ġlay": 5405,
      "Ġhappy": 5406,
      "ĠÐ¿ÑĢ": 5407,
      "rier": 5408,
      "åİ»": 5409,
      "çķ": 5410,
      "rer": 5411,
      "nab": 5412,
      "{L": 5413,
      "ael": 5414,
      "Ġhar": 5415,
      "ialog": 5416,
      "æ±": 5417,
      "asons": 5418,
      "Acc": 5419,
      "Ġpair": 5420,
      "aby": 5421,
      "Ġincludes": 5422,
      "draw": 5423,
      "ä¸Ģä¸ª": 5424,
      "ãĥĪ": 5425,
      "ae": 5426,
      "xx": 5427,
      "Ġmicro": 5428,
      "Ġgreen": 5429,
      "TO": 5430,
      "Ġfat": 5431,
      "{proof": 5432,
      "uid": 5433,
      "{lem": 5434,
      "ĠAustral": 5435,
      "ulated": 5436,
      "ĠâĢŀ": 5437,
      "Ã§Ã£o": 5438,
      "Ġurl": 5439,
      "\").": 5440,
      "Ġded": 5441,
      "TH": 5442,
      "Ġparents": 5443,
      "Ġtom": 5444,
      "Ġequal": 5445,
      "Ġandroid": 5446,
      "MS": 5447,
      "ĠÅ": 5448,
      "æ¬": 5449,
      "}}$": 5450,
      "'ĊĊ": 5451,
      "DF": 5452,
      "_to": 5453,
      "cil": 5454,
      "Ġsafe": 5455,
      "Ġdefine": 5456,
      "Ġactive": 5457,
      "Ġoptim": 5458,
      "Ġmoved": 5459,
      "Ġdemonstr": 5460,
      "ãĤī": 5461,
      "graphics": 5462,
      "Ġexperien": 5463,
      "ĠWork": 5464,
      "ĠMich": 5465,
      "ĠDie": 5466,
      "inct": 5467,
      "ãĢĤĊĊ": 5468,
      "Ġpopulation": 5469,
      "Ġgold": 5470,
      "edia": 5471,
      "mente": 5472,
      "bon": 5473,
      "Ġskin": 5474,
      "`Ċ": 5475,
      "Ġincreased": 5476,
      "itory": 5477,
      "\\[": 5478,
      "Ġfeeling": 5479,
      "Ġcool": 5480,
      "ì§Ģ": 5481,
      "term": 5482,
      "server": 5483,
      "Ġ\\(\\": 5484,
      "Ġtour": 5485,
      "Ġnational": 5486,
      "ĠSan": 5487,
      ".N": 5488,
      "zo": 5489,
      "Ġfloat": 5490,
      "ttp": 5491,
      "<div": 5492,
      "Ġinvolved": 5493,
      "Ġgoal": 5494,
      "Ġplant": 5495,
      "tical": 5496,
      "ĠOctober": 5497,
      "(-": 5498,
      "clus": 5499,
      "Ġbrother": 5500,
      "Ġtouch": 5501,
      "dev": 5502,
      "Ġsequence": 5503,
      "Ġmouth": 5504,
      "Ġaqu": 5505,
      "Å³": 5506,
      "cover": 5507,
      "ĠEven": 5508,
      "Ġtrust": 5509,
      "}\\)": 5510,
      "Ġlarger": 5511,
      "Ġheat": 5512,
      "ìŀ": 5513,
      "ds": 5514,
      "iling": 5515,
      "Ġdecre": 5516,
      "Ġstru": 5517,
      "{H": 5518,
      "ĠNovember": 5519,
      "Ġni": 5520,
      "aset": 5521,
      "Ġincreasing": 5522,
      "________": 5523,
      "Controller": 5524,
      "Ġrot": 5525,
      "é¢": 5526,
      "Ġstage": 5527,
      "Ġplaying": 5528,
      "Ġdrink": 5529,
      "grad": 5530,
      "Ġstarting": 5531,
      "ona": 5532,
      "ection": 5533,
      "Yes": 5534,
      "apping": 5535,
      "Ġfair": 5536,
      "Ġmedical": 5537,
      "Ġenter": 5538,
      "aren": 5539,
      "Per": 5540,
      "Ġ::": 5541,
      "filename": 5542,
      "åŁ": 5543,
      "Ġvariables": 5544,
      "_A": 5545,
      "ĠInter": 5546,
      "Ġstream": 5547,
      "Ġtend": 5548,
      "ĠDE": 5549,
      "Ġdegree": 5550,
      "Ġuseful": 5551,
      "aste": 5552,
      "Ġnu": 5553,
      "ĠHist": 5554,
      "-e": 5555,
      "Īëĭ¤": 5556,
      "æĸĩ": 5557,
      "SON": 5558,
      "!âĢĿ": 5559,
      "Ġinj": 5560,
      "Ġapproxim": 5561,
      "ography": 5562,
      "Dis": 5563,
      "Ġevidence": 5564,
      "éĿ¢": 5565,
      "())": 5566,
      "Ġthroughout": 5567,
      "Ġreference": 5568,
      "iform": 5569,
      "è·": 5570,
      "TE": 5571,
      "yd": 5572,
      "è°": 5573,
      "Ġmid": 5574,
      "Ġofficial": 5575,
      "ĠEnglish": 5576,
      "then": 5577,
      "Ġwide": 5578,
      "ĠDecember": 5579,
      "ĠBlack": 5580,
      "_RE": 5581,
      "Ġgone": 5582,
      "pa": 5583,
      "#####": 5584,
      "Ġleading": 5585,
      "Override": 5586,
      "Ġpassed": 5587,
      "Ġconsum": 5588,
      "Ġtor": 5589,
      "Ġimmediately": 5590,
      "Ġlives": 5591,
      "Ġinteresting": 5592,
      "ĠTHE": 5593,
      "Ġcoord": 5594,
      "Here": 5595,
      ".re": 5596,
      "itution": 5597,
      "ptr": 5598,
      "Stream": 5599,
      "Ġbasis": 5600,
      "Î±": 5601,
      "Ġdetect": 5602,
      "\\|": 5603,
      "erve": 5604,
      "Ġfactors": 5605,
      "Ġadm": 5606,
      "End": 5607,
      "sg": 5608,
      "Ġpolitical": 5609,
      "ĠPaul": 5610,
      "-v": 5611,
      "Ġ===": 5612,
      "undred": 5613,
      "Ġlock": 5614,
      "Ġalgorithm": 5615,
      "Ġconduct": 5616,
      "ĠĠĠĠĠĠĠĠĠĠĠĠĠĠĠĠĠĠĠĠĠĠĠĠĠĠĠĠĠĠĠĠĠĠĠ": 5617,
      "Ġdrive": 5618,
      ".id": 5619,
      "ancy": 5620,
      "Ġsein": 5621,
      "Ġbottom": 5622,
      "itable": 5623,
      "model": 5624,
      "Ġ\\Ċ": 5625,
      "æ¸": 5626,
      "(&": 5627,
      "Ġaim": 5628,
      "ista": 5629,
      "Content": 5630,
      "å¿ĥ": 5631,
      ".\\": 5632,
      "ãĤ¢": 5633,
      "ĠAmerica": 5634,
      "Ġnod": 5635,
      "Ġyes": 5636,
      "ĠKe": 5637,
      "md": 5638,
      "Ð»Ñı": 5639,
      "ï¿½ï¿½": 5640,
      "Ġmur": 5641,
      ":čĊ": 5642,
      "ĠMor": 5643,
      "ota": 5644,
      "Ġdir": 5645,
      "hline": 5646,
      "ĠLondon": 5647,
      "/t": 5648,
      "ago": 5649,
      "Ġ~": 5650,
      "rupt": 5651,
      "Ġhappen": 5652,
      "ĠLog": 5653,
      "Ġextends": 5654,
      "Ġalthough": 5655,
      "tocol": 5656,
      "ospital": 5657,
      "Ġremove": 5658,
      "anz": 5659,
      "MA": 5660,
      "olve": 5661,
      "context": 5662,
      "lections": 5663,
      "Ġallowed": 5664,
      "_a": 5665,
      "Ġstock": 5666,
      "Ġvous": 5667,
      "ĠChina": 5668,
      ".</": 5669,
      "åĲĮ": 5670,
      ")ĊĊĊ": 5671,
      "foot": 5672,
      "Ġroot": 5673,
      "Ġdecided": 5674,
      "Â¿": 5675,
      "XX": 5676,
      "Ã¹": 5677,
      "next": 5678,
      "ĠPost": 5679,
      "Ġmilit": 5680,
      "KE": 5681,
      "node": 5682,
      "Ġrecently": 5683,
      "Ġbrand": 5684,
      "Ġmodern": 5685,
      "ë¡ľ": 5686,
      ".length": 5687,
      "Ġcommit": 5688,
      "rote": 5689,
      "Ġbroad": 5690,
      "ĠRom": 5691,
      "group": 5692,
      "Ġacqu": 5693,
      "-A": 5694,
      "CO": 5695,
      "Source": 5696,
      "æģ": 5697,
      "-year": 5698,
      "_re": 5699,
      "Ġbreath": 5700,
      "Ġmiddle": 5701,
      "berg": 5702,
      "ĠOff": 5703,
      "atever": 5704,
      "Ġdeveloped": 5705,
      "Ġvict": 5706,
      "ĠAfr": 5707,
      "å§": 5708,
      "fs": 5709,
      "itÃ©": 5710,
      "Ð½Ñı": 5711,
      "inition": 5712,
      "hi": 5713,
      "ë¦": 5714,
      "ï¼ģ": 5715,
      "Ġemail": 5716,
      "ìķ": 5717,
      "Ġcollection": 5718,
      "{sec": 5719,
      "Ġoffers": 5720,
      "inated": 5721,
      "ushed": 5722,
      "Ã©r": 5723,
      "Ġnone": 5724,
      ".util": 5725,
      "ĠPress": 5726,
      "eli": 5727,
      "current": 5728,
      "×ķ": 5729,
      "lig": 5730,
      "ĠÑģÑĤ": 5731,
      "Ġ}čĊ": 5732,
      "ishing": 5733,
      "Ġcharge": 5734,
      "_start": 5735,
      "-L": 5736,
      "TP": 5737,
      "arse": 5738,
      "åģ": 5739,
      "-D": 5740,
      "Ġlack": 5741,
      "enge": 5742,
      "ributes": 5743,
      "child": 5744,
      ",-": 5745,
      "pid": 5746,
      "button": 5747,
      "Ġresources": 5748,
      "ĠÑĢÐ°": 5749,
      "riter": 5750,
      "Ġmoving": 5751,
      "amily": 5752,
      "Ġecho": 5753,
      "iring": 5754,
      "rad": 5755,
      "Ġlie": 5756,
      "ufact": 5757,
      "Ġdensity": 5758,
      "ĉf": 5759,
      "Ġrock": 5760,
      "Ġrepe": 5761,
      "ran": 5762,
      "aching": 5763,
      "Ġstatement": 5764,
      "Ġstrength": 5765,
      "Ġquery": 5766,
      "appa": 5767,
      "lebr": 5768,
      "Phi": 5769,
      "pret": 5770,
      "Ġevalu": 5771,
      "Ġsometimes": 5772,
      "how": 5773,
      "ĠMo": 5774,
      "ĠfÃ¼r": 5775,
      "Ġvel": 5776,
      "Te": 5777,
      "iant": 5778,
      "Ġgiving": 5779,
      "Ġeine": 5780,
      ".append": 5781,
      "Ġgar": 5782,
      "EE": 5783,
      "mult": 5784,
      "Ġsets": 5785,
      "ruary": 5786,
      "Number": 5787,
      "iger": 5788,
      "pg": 5789,
      "********************************": 5790,
      "ĠRead": 5791,
      "-a": 5792,
      "å½ĵ": 5793,
      "pol": 5794,
      "Ø§": 5795,
      "ĠAlso": 5796,
      "Ġton": 5797,
      "ĠTable": 5798,
      "Head": 5799,
      "ĠType": 5800,
      "Method": 5801,
      "Ġshowed": 5802,
      "update": 5803,
      "king": 5804,
      "/g": 5805,
      "Ġchalleng": 5806,
      "ett": 5807,
      "Ð¸Ð²": 5808,
      "Ġinterface": 5809,
      "iced": 5810,
      "ĠHouse": 5811,
      "Ġindividuals": 5812,
      "éķ": 5813,
      "ni": 5814,
      "ala": 5815,
      "Ġcomponents": 5816,
      "Ġjoin": 5817,
      ".Get": 5818,
      "strict": 5819,
      "atrix": 5820,
      "cles": 5821,
      "ifying": 5822,
      "ÐµÐ¹": 5823,
      "Ġsurv": 5824,
      "Ġnice": 5825,
      "Ġgreater": 5826,
      "Ġearlier": 5827,
      "Ġcountries": 5828,
      "teger": 5829,
      "strong": 5830,
      "ĠEvery": 5831,
      "rim": 5832,
      "Ġconvers": 5833,
      "Ġpolice": 5834,
      "otimes": 5835,
      "RA": 5836,
      "Ġunderstanding": 5837,
      "Oh": 5838,
      "ãĤĬ": 5839,
      "Ġguess": 5840,
      "Ġonto": 5841,
      "Component": 5842,
      "ĠSam": 5843,
      "Ġnorm": 5844,
      "éĸ": 5845,
      "Ġkept": 5846,
      "prime": 5847,
      "ctors": 5848,
      "Ġcast": 5849,
      "Ġmeaning": 5850,
      "Ġscri": 5851,
      "GL": 5852,
      "Ġbasic": 5853,
      "Ġadvant": 5854,
      "och": 5855,
      "ãĤ¯": 5856,
      ";čĊčĊ": 5857,
      "ois": 5858,
      "ĠJack": 5859,
      "obj": 5860,
      "start": 5861,
      "-sh": 5862,
      "Ġfloor": 5863,
      "Ġrights": 5864,
      "Ġpark": 5865,
      "Ġhol": 5866,
      "Lambda": 5867,
      "Util": 5868,
      "ustr": 5869,
      "Ġhop": 5870,
      "Ġcharg": 5871,
      "ÑģÑĮ": 5872,
      "Ġstuff": 5873,
      "arter": 5874,
      "ban": 5875,
      "Ġweak": 5876,
      "Ġsecret": 5877,
      "overed": 5878,
      "ç¤": 5879,
      "vest": 5880,
      "Ã©es": 5881,
      "Ġoperator": 5882,
      "Ġequival": 5883,
      "ĠIndia": 5884,
      "Ġdesigned": 5885,
      "PO": 5886,
      "ĠArch": 5887,
      "Start": 5888,
      "ãĥ©": 5889,
      "ulate": 5890,
      "PRO": 5891,
      "avig": 5892,
      "was": 5893,
      "SC": 5894,
      "Ġcomputer": 5895,
      "cup": 5896,
      "Ġlen": 5897,
      "ĠOther": 5898,
      "itect": 5899,
      "ĠÃ©tait": 5900,
      "Ġtransfer": 5901,
      "Ġeducation": 5902,
      "/Ċ": 5903,
      "Ġwarm": 5904,
      "ĠNews": 5905,
      "Ð¸Ð»": 5906,
      "{tab": 5907,
      "Ġproposed": 5908,
      "Ġreached": 5909,
      "Ġawait": 5910,
      "Ġassume": 5911,
      "Ġobvious": 5912,
      "è¿ĺ": 5913,
      "Ġìķ": 5914,
      "ĠHealth": 5915,
      "Ġrules": 5916,
      "ĠDem": 5917,
      "Ġobjects": 5918,
      "èº": 5919,
      ".de": 5920,
      "<?": 5921,
      "ola": 5922,
      "åħ¶": 5923,
      "amos": 5924,
      "DB": 5925,
      "ĠRE": 5926,
      "rench": 5927,
      "Ġrespond": 5928,
      "Ġshape": 5929,
      "rey": 5930,
      "Ġmount": 5931,
      "èµ·": 5932,
      "Ġcomme": 5933,
      "othes": 5934,
      "Ġnames": 5935,
      "-se": 5936,
      "\\section": 5937,
      "ji": 5938,
      "Ġplayed": 5939,
      "ĠArt": 5940,
      "ĠDavid": 5941,
      "yond": 5942,
      "Ġcold": 5943,
      "åıĳ": 5944,
      "Ġwife": 5945,
      "Ġstaff": 5946,
      "Ġbank": 5947,
      "ĠCam": 5948,
      "Ġdiet": 5949,
      "Ġpow": 5950,
      "Ġemot": 5951,
      "ĠBer": 5952,
      "å¥½": 5953,
      ".md": 5954,
      "ĠThus": 5955,
      "ilde": 5956,
      "Ġboard": 5957,
      "Instance": 5958,
      "Ð°Ð²": 5959,
      "})$": 5960,
      "ira": 5961,
      "ĠMod": 5962,
      "BN": 5963,
      "vi": 5964,
      "ĠDan": 5965,
      "Ġreduce": 5966,
      "·¸": 5967,
      "âĢĻil": 5968,
      "-re": 5969,
      "Ġrob": 5970,
      "ĠTime": 5971,
      "Ġprogress": 5972,
      "ĠÄ": 5973,
      "ounced": 5974,
      "Ġtalking": 5975,
      "ç©": 5976,
      "Ġempty": 5977,
      "sets": 5978,
      "aign": 5979,
      "ĠForm": 5980,
      "Ġaspect": 5981,
      "eds": 5982,
      "ĠRetrieved": 5983,
      "Ġopened": 5984,
      "ĠFile": 5985,
      "ander": 5986,
      "Ġtruth": 5987,
      "Ġcarry": 5988,
      "sych": 5989,
      "Ġ[]": 5990,
      "Ġtransport": 5991,
      "Ġrelig": 5992,
      "itute": 5993,
      "uint": 5994,
      "ĠMal": 5995,
      "Ġargument": 5996,
      "pload": 5997,
      "Ġfresh": 5998,
      "Ġappropri": 5999,
      "oul": 6000,
      "cons": 6001,
      "Ġselected": 6002,
      "Ġsett": 6003,
      "ĠJapan": 6004,
      "ĠZe": 6005,
      "author": 6006,
      "isions": 6007,
      "Ġassess": 6008,
      "Ġrule": 6009,
      "assword": 6010,
      "ĠPre": 6011,
      "Ġnegative": 6012,
      "pecial": 6013,
      "Ġbooks": 6014,
      "Ġgal": 6015,
      "gebra": 6016,
      "Ġhour": 6017,
      "_.": 6018,
      "æĹł": 6019,
      "Ġreturned": 6020,
      "Us": 6021,
      "Ġpush": 6022,
      "Ġcustomers": 6023,
      "ĠDay": 6024,
      "Ġbeginning": 6025,
      "ÐºÐ¸": 6026,
      "Ð¾ÑģÑĤ": 6027,
      "Ġlatest": 6028,
      "yles": 6029,
      "_E": 6030,
      "Ġbutton": 6031,
      "ĠNOT": 6032,
      "Ġ``": 6033,
      "(e": 6034,
      "Ġfully": 6035,
      "Token": 6036,
      "only": 6037,
      "env": 6038,
      "æīĭ": 6039,
      "etch": 6040,
      ".\"Ċ": 6041,
      "Ġscript": 6042,
      "json": 6043,
      "uts": 6044,
      "}/": 6045,
      "Ġachieve": 6046,
      "Ġuint": 6047,
      "(int": 6048,
      "Handler": 6049,
      "Ġmachine": 6050,
      "ĠPal": 6051,
      "hol": 6052,
      "/f": 6053,
      "Ġlif": 6054,
      "\\subsection": 6055,
      "Ġdefinition": 6056,
      "sf": 6057,
      "íķľ": 6058,
      "ĠHel": 6059,
      "Ġmeeting": 6060,
      "dden": 6061,
      "rial": 6062,
      "{N": 6063,
      "_path": 6064,
      "acters": 6065,
      "ĠĠĠĠĠĠĠĠĊ": 6066,
      "ĠÐ½Ðµ": 6067,
      "overn": 6068,
      "_G": 6069,
      ".io": 6070,
      "ĠJes": 6071,
      "Ġwel": 6072,
      "Ġactivities": 6073,
      "Ġdrop": 6074,
      "{c": 6075,
      "service": 6076,
      "Ġindependent": 6077,
      "ĠSol": 6078,
      "{T": 6079,
      "ĠPresident": 6080,
      "issions": 6081,
      "ÑĨÐ¸": 6082,
      "ĠAny": 6083,
      "Ġvariety": 6084,
      "Ġcertainly": 6085,
      "ãģķ": 6086,
      "Ġcollect": 6087,
      "ĠTV": 6088,
      "othing": 6089,
      "Ġrelative": 6090,
      "Ġstress": 6091,
      "Ġmeas": 6092,
      "response": 6093,
      "å¥¹": 6094,
      "\\frac": 6095,
      "iance": 6096,
      "hent": 6097,
      "Ġgenerated": 6098,
      "ĉĉĉĉĉĉ": 6099,
      "\\text": 6100,
      "ship": 6101,
      "yr": 6102,
      "ç®": 6103,
      "itely": 6104,
      "frak": 6105,
      "Ġsobre": 6106,
      "reci": 6107,
      ";\\": 6108,
      "Ġdisease": 6109,
      "ĠÐ¾Ð±": 6110,
      "'),Ċ": 6111,
      "RL": 6112,
      "weight": 6113,
      "grams": 6114,
      "ĠHam": 6115,
      "-F": 6116,
      "{p": 6117,
      "osis": 6118,
      "ĠMag": 6119,
      "Ġpens": 6120,
      "Ġbeyond": 6121,
      "âĢ¦âĢ¦": 6122,
      "ĠÐĶ": 6123,
      "Builder": 6124,
      "Ġhundred": 6125,
      "Ġmaximum": 6126,
      "Ġprimary": 6127,
      "ĠCour": 6128,
      "wood": 6129,
      "ĠCounty": 6130,
      "ç¬¬": 6131,
      "Ġtal": 6132,
      "Ġeye": 6133,
      "ãĥĥ": 6134,
      "ĠEs": 6135,
      "Ġcounter": 6136,
      "Ġscen": 6137,
      "èĭ": 6138,
      "Ġsites": 6139,
      "efore": 6140,
      "Ġopportunity": 6141,
      "unit": 6142,
      "ĠÃ©l": 6143,
      ",y": 6144,
      "uz": 6145,
      "ker": 6146,
      "(v": 6147,
      "Ext": 6148,
      "ells": 6149,
      "çĲĨ": 6150,
      "Point": 6151,
      "Ġeat": 6152,
      "fin": 6153,
      "ĠÃ¼": 6154,
      "Ġsymbol": 6155,
      "Ġcat": 6156,
      "Ġshift": 6157,
      "á»": 6158,
      "Ġsudden": 6159,
      "iller": 6160,
      "Ġmale": 6161,
      "Ġinternal": 6162,
      "Ġpresence": 6163,
      "images": 6164,
      "ivil": 6165,
      "Ġprofessional": 6166,
      "Ġsig": 6167,
      "Ð¸Ñĩ": 6168,
      ":\"": 6169,
      "Post": 6170,
      "header": 6171,
      "fa": 6172,
      "PC": 6173,
      "dr": 6174,
      "Ġpresented": 6175,
      "Ġreleased": 6176,
      "iler": 6177,
      "bolds": 6178,
      "Ġleaders": 6179,
      "ìĿĢ": 6180,
      "ê²": 6181,
      "Ġboolean": 6182,
      "can": 6183,
      "Ġextrem": 6184,
      "column": 6185,
      "ronic": 6186,
      "Ġapplied": 6187,
      "}-": 6188,
      "Ġframe": 6189,
      "Action": 6190,
      "Net": 6191,
      "Ġherself": 6192,
      "Ġreceive": 6193,
      "Ġdetermine": 6194,
      "æĦı": 6195,
      "osen": 6196,
      "Ġcentral": 6197,
      "è¢": 6198,
      "}čĊčĊ": 6199,
      "ĠGeneral": 6200,
      "âĶĢ": 6201,
      "ya": 6202,
      "Ġfamil": 6203,
      "adata": 6204,
      "olf": 6205,
      "Ġcop": 6206,
      "Ġboy": 6207,
      "ador": 6208,
      "æĥ³": 6209,
      "BD": 6210,
      "Ġaware": 6211,
      "ameters": 6212,
      "boldsymbol": 6213,
      "iu": 6214,
      "ĠObject": 6215,
      ":\\": 6216,
      "ees": 6217,
      "ogen": 6218,
      "IO": 6219,
      "levant": 6220,
      "display": 6221,
      "Ġbrain": 6222,
      "Ġ(Ċ": 6223,
      "Ġglass": 6224,
      "Ġfilter": 6225,
      "ĠMac": 6226,
      "Ġclasses": 6227,
      "ï¼ļâĢľ": 6228,
      "Je": 6229,
      "Ġdomain": 6230,
      "ugh": 6231,
      "Ġyield": 6232,
      "Ġhuge": 6233,
      "/v": 6234,
      "scale": 6235,
      "Ġcomfort": 6236,
      "UP": 6237,
      "éĥ¨": 6238,
      "Ġrequires": 6239,
      "Ġesc": 6240,
      "CK": 6241,
      "Page": 6242,
      "umm": 6243,
      "Ġwood": 6244,
      "Ġnous": 6245,
      "values": 6246,
      "}}{": 6247,
      "etails": 6248,
      "base": 6249,
      "ĠSie": 6250,
      "Ġprove": 6251,
      "ç´": 6252,
      "Ġpurpose": 6253,
      "Ġmil": 6254,
      "Ġlimited": 6255,
      "Ġvs": 6256,
      "Ġthreat": 6257,
      "Ġom": 6258,
      "Ġnos": 6259,
      "ĠMost": 6260,
      "Ġconver": 6261,
      "Ġkids": 6262,
      "Ġarms": 6263,
      "Ġmodule": 6264,
      "ĠTom": 6265,
      "])Ċ": 6266,
      "perties": 6267,
      "´ë": 6268,
      "rive": 6269,
      "ĠVol": 6270,
      "Ġrank": 6271,
      "atically": 6272,
      "Ġspirit": 6273,
      "ĠÑĢ": 6274,
      "vere": 6275,
      "Ġburn": 6276,
      "iders": 6277,
      "ĠMart": 6278,
      "isation": 6279,
      "kappa": 6280,
      "raz": 6281,
      ".~\\": 6282,
      "Ġlayer": 6283,
      "Ġpackage": 6284,
      "Ġcourt": 6285,
      "ðŁ": 6286,
      "{array": 6287,
      "Ġ['": 6288,
      "_W": 6289,
      "Ġcapital": 6290,
      "unic": 6291,
      "aughter": 6292,
      "ports": 6293,
      "(X": 6294,
      "Ġapplications": 6295,
      "Ġchannel": 6296,
      "hest": 6297,
      "-time": 6298,
      "rip": 6299,
      "enses": 6300,
      "Ġdies": 6301,
      "ĉm": 6302,
      "çİ°": 6303,
      "Ġtests": 6304,
      "eration": 6305,
      "<td": 6306,
      "Ġnearly": 6307,
      "ë¥¼": 6308,
      "unn": 6309,
      "<re": 6310,
      "Ġchem": 6311,
      "ÑģÑĤÐ²": 6312,
      "ÑĹ": 6313,
      "Ġpiece": 6314,
      "Ġexplain": 6315,
      "Ġoperation": 6316,
      "////////////////": 6317,
      "'.": 6318,
      ".y": 6319,
      "ĠOver": 6320,
      "sv": 6321,
      "dots": 6322,
      "icit": 6323,
      "Ġnotice": 6324,
      "Ġsignal": 6325,
      ".H": 6326,
      "Ġhyp": 6327,
      "vider": 6328,
      "Ġbul": 6329,
      "Ġsmooth": 6330,
      "Ġfirm": 6331,
      "emma": 6332,
      "ĠÐ³Ð¾Ð´": 6333,
      "Ġhighly": 6334,
      "Ġshot": 6335,
      "Ġtempl": 6336,
      "ãģ¾": 6337,
      "has": 6338,
      "itz": 6339,
      "ĠEv": 6340,
      "à¦¿à¦": 6341,
      "Ġcritical": 6342,
      "Ġwish": 6343,
      "ĠTherefore": 6344,
      "();": 6345,
      "rees": 6346,
      "ĠFin": 6347,
      "vector": 6348,
      "Ġswitch": 6349,
      "Ġsen": 6350,
      "Ġeight": 6351,
      "Ġspread": 6352,
      "poname": 6353,
      "Ġvolume": 6354,
      "Ġpi": 6355,
      "åıª": 6356,
      "OW": 6357,
      "ĠÐ»": 6358,
      "æı": 6359,
      "una": 6360,
      "<filename": 6361,
      "inder": 6362,
      "Ġprotected": 6363,
      "æŃ¤": 6364,
      "lie": 6365,
      "Ġexerc": 6366,
      "<reponame": 6367,
      "ati": 6368,
      "agram": 6369,
      "ensional": 6370,
      "Ġfol": 6371,
      "Ġideas": 6372,
      "_stars": 6373,
      "{b": 6374,
      "Base": 6375,
      "-de": 6376,
      "gest": 6377,
      "force": 6378,
      "YPE": 6379,
      "Ġresource": 6380,
      "èĪ": 6381,
      "(S": 6382,
      "Ġbecomes": 6383,
      "etic": 6384,
      "Ġfig": 6385,
      "ìĭ": 6386,
      "Ġtools": 6387,
      "Ġexisting": 6388,
      "Ġbud": 6389,
      "<gh": 6390,
      "Check": 6391,
      "Ãªme": 6392,
      "<T": 6393,
      "icks": 6394,
      "ĠInternational": 6395,
      "äºĽ": 6396,
      "Ġperformed": 6397,
      "Ġ-->": 6398,
      "Ġconnected": 6399,
      "Ġye": 6400,
      "Ġ/>Ċ": 6401,
      "Ġprobability": 6402,
      "ipal": 6403,
      "Ġstood": 6404,
      "ĠSection": 6405,
      "ÐµÐ²": 6406,
      "params": 6407,
      "Ġperhaps": 6408,
      "Ġlegal": 6409,
      "ĠPort": 6410,
      "DA": 6411,
      "pat": 6412,
      "thm": 6413,
      ".âĢľ": 6414,
      "IB": 6415,
      "Ġanc": 6416,
      "ĠBest": 6417,
      "Ġpun": 6418,
      "ï¬": 6419,
      "Ġreturns": 6420,
      "pling": 6421,
      "izations": 6422,
      "hand": 6423,
      "ç¾": 6424,
      "Ġmeant": 6425,
      "Ġpills": 6426,
      "ĠÃ¨": 6427,
      "jection": 6428,
      "Ġentry": 6429,
      "Ġthread": 6430,
      "estern": 6431,
      "aming": 6432,
      "anto": 6433,
      "Ġsmile": 6434,
      "Ġinternational": 6435,
      "Ġcreating": 6436,
      "Â·": 6437,
      "Ret": 6438,
      "ãģĤ": 6439,
      "iera": 6440,
      "Ġblog": 6441,
      "Ġindu": 6442,
      "icate": 6443,
      "Ġ${": 6444,
      "Il": 6445,
      "Ġpublished": 6446,
      "google": 6447,
      "arc": 6448,
      "Ġplaces": 6449,
      "connect": 6450,
      "Ġoverall": 6451,
      "riend": 6452,
      "ãĤĤ": 6453,
      "Ġmentioned": 6454,
      "Ġthous": 6455,
      "_,": 6456,
      "}+": 6457,
      "Ġtod": 6458,
      "ÅĻ": 6459,
      "urity": 6460,
      "ĠArm": 6461,
      "################": 6462,
      "Ġsac": 6463,
      "Ġva": 6464,
      "Ð¾Ð¿": 6465,
      "Ġconsole": 6466,
      "Ġconstruction": 6467,
      "Ġrates": 6468,
      "Ġexecut": 6469,
      "well": 6470,
      "ĠFebruary": 6471,
      "Ġ$$": 6472,
      "ĠLaw": 6473,
      ".v": 6474,
      "arth": 6475,
      "ULT": 6476,
      "Ġpoor": 6477,
      "¸°": 6478,
      "Ġparticularly": 6479,
      "oche": 6480,
      "{G": 6481,
      "ĠÐ¾ÑĤ": 6482,
      "Ġcore": 6483,
      "Ġclin": 6484,
      "ĠNote": 6485,
      "Ġcontinued": 6486,
      "aux": 6487,
      "Ġwave": 6488,
      "pir": 6489,
      "ĠDate": 6490,
      ".data": 6491,
      "dt": 6492,
      "CD": 6493,
      "you": 6494,
      "adow": 6495,
      "Ġclub": 6496,
      "Ġfinite": 6497,
      "ivo": 6498,
      "root": 6499,
      "Ġdetermined": 6500,
      "ABLE": 6501,
      "ĠTw": 6502,
      "_ST": 6503,
      "ä½Ĩ": 6504,
      "semb": 6505,
      "Ġlocated": 6506,
      ")-": 6507,
      "Ġsmaller": 6508,
      "ä¸»": 6509,
      "Ġgenerally": 6510,
      "Ġscore": 6511,
      "Ġenhance": 6512,
      "mission": 6513,
      "èº«": 6514,
      "otic": 6515,
      "Ġdatabase": 6516,
      "ĠGroup": 6517,
      "ez": 6518,
      "Ġcorrel": 6519,
      "åĲį": 6520,
      "Fig": 6521,
      "Ġprefer": 6522,
      "åĽŀ": 6523,
      "Ġcosts": 6524,
      "edge": 6525,
      "ĠJames": 6526,
      "Ġwants": 6527,
      "Ġstrategy": 6528,
      "_cl": 6529,
      "Ġcelebr": 6530,
      "uis": 6531,
      "Sigma": 6532,
      "ASS": 6533,
      "ruit": 6534,
      "UI": 6535,
      "subset": 6536,
      "ĠPM": 6537,
      "Ġotherwise": 6538,
      "å¼Ģ": 6539,
      "ischen": 6540,
      "ĠMa": 6541,
      "çŁ¥": 6542,
      "anel": 6543,
      "åĬĽ": 6544,
      "atabase": 6545,
      "ÐµÐº": 6546,
      "ests": 6547,
      "IST": 6548,
      "plot": 6549,
      "ĠAlex": 6550,
      "ãģĵ": 6551,
      "()ĊĊ": 6552,
      "Ġproduce": 6553,
      "ĠEnd": 6554,
      "Ġsources": 6555,
      "ĠCON": 6556,
      "null": 6557,
      "Ġguy": 6558,
      ")]": 6559,
      "clusion": 6560,
      "Ġze": 6561,
      "dy": 6562,
      "lar": 6563,
      "Ġkit": 6564,
      "Ġassist": 6565,
      "ìļ": 6566,
      "Ġbenefits": 6567,
      "look": 6568,
      "omorph": 6569,
      "ĠCenter": 6570,
      "lis": 6571,
      "iments": 6572,
      "mathfrak": 6573,
      "{\"": 6574,
      "Ð¾Ð·": 6575,
      "aban": 6576,
      "Part": 6577,
      "las": 6578,
      "Ġsitu": 6579,
      "Ġrecommend": 6580,
      "Ġnor": 6581,
      "(T": 6582,
      "]:": 6583,
      "/w": 6584,
      "(M": 6585,
      "imple": 6586,
      "ĠSci": 6587,
      "Ġamb": 6588,
      "ĠWeb": 6589,
      "Ġvir": 6590,
      "Equal": 6591,
      "anges": 6592,
      "Ġcareer": 6593,
      "ĠDirect": 6594,
      "Ġdistributed": 6595,
      "Ġeconomic": 6596,
      "Ġculture": 6597,
      "Entity": 6598,
      "Ġinsp": 6599,
      "kin": 6600,
      "Ġclearly": 6601,
      "Ã©t": 6602,
      "ĉfor": 6603,
      "())Ċ": 6604,
      "Ġdigital": 6605,
      "ĠÐĳ": 6606,
      "netic": 6607,
      "uan": 6608,
      "lag": 6609,
      "mbox": 6610,
      "Options": 6611,
      "Ġexception": 6612,
      "iber": 6613,
      "Ġflex": 6614,
      "First": 6615,
      "conf": 6616,
      "Ġpriv": 6617,
      "æĺİ": 6618,
      "rypt": 6619,
      "ĠTheorem": 6620,
      "ouncil": 6621,
      "_set": 6622,
      "undle": 6623,
      "Ġjo": 6624,
      "Ġsafety": 6625,
      "æľĢ": 6626,
      "ancing": 6627,
      "-of": 6628,
      "dro": 6629,
      "ellent": 6630,
      "Ġ=Ċ": 6631,
      "Don": 6632,
      "Ġmaster": 6633,
      "ĠOpen": 6634,
      "CA": 6635,
      ")=\\": 6636,
      "Column": 6637,
      "ĠÐµ": 6638,
      "ĠBet": 6639,
      "Ġnamed": 6640,
      "ĠWindows": 6641,
      "ederal": 6642,
      "ĠUse": 6643,
      "ĠUK": 6644,
      "ĠTechn": 6645,
      "iva": 6646,
      "ëĵ": 6647,
      ".;": 6648,
      "Ġcharacters": 6649,
      "ĠAPI": 6650,
      "eed": 6651,
      "control": 6652,
      "make": 6653,
      "Ġearn": 6654,
      "/\\": 6655,
      "Ġbuff": 6656,
      ",t": 6657,
      "nabla": 6658,
      "Ġopin": 6659,
      "ĠSur": 6660,
      "Ġpatient": 6661,
      "ä¸ī": 6662,
      "é«": 6663,
      "ani": 6664,
      "çĤ¹": 6665,
      "Ġsomew": 6666,
      "ributions": 6667,
      "zt": 6668,
      "ĠSal": 6669,
      "Ġpulled": 6670,
      "Ġwur": 6671,
      "Ã®": 6672,
      "Char": 6673,
      "Ġmort": 6674,
      "ĠAir": 6675,
      "ĠGoogle": 6676,
      "Ġstrateg": 6677,
      "Ġmu": 6678,
      "CP": 6679,
      "Ġfailed": 6680,
      "ĠMiss": 6681,
      "uls": 6682,
      "ANT": 6683,
      "Ġjour": 6684,
      "Ġspecies": 6685,
      "main": 6686,
      "omas": 6687,
      "Ġstudent": 6688,
      "msg": 6689,
      "ĠRel": 6690,
      "ĠSen": 6691,
      "Ð¸Ð¼": 6692,
      "osing": 6693,
      "ĠBel": 6694,
      "NS": 6695,
      "erent": 6696,
      "èī": 6697,
      "ĠÐĿ": 6698,
      "bert": 6699,
      "Ġcup": 6700,
      "Output": 6701,
      "ĠDec": 6702,
      "Null": 6703,
      "Ġven": 6704,
      "ĠService": 6705,
      "adas": 6706,
      "Ste": 6707,
      "Ġpicture": 6708,
      "Ġwrote": 6709,
      "Ġwaiting": 6710,
      "Ġdownload": 6711,
      "ï»": 6712,
      "Ġvill": 6713,
      "à§ĩà¦": 6714,
      "æį": 6715,
      "ĠRich": 6716,
      "Ġmanufact": 6717,
      "Ġforms": 6718,
      "ĠRober": 6719,
      "æł·": 6720,
      "elled": 6721,
      "âĢĶ.": 6722,
      "page": 6723,
      "Ġsab": 6724,
      "asta": 6725,
      "uman": 6726,
      "Ġconvert": 6727,
      "Ġcandid": 6728,
      "_de": 6729,
      "\\!": 6730,
      "orrow": 6731,
      "ĠMad": 6732,
      "Ġteacher": 6733,
      "while": 6734,
      "apache": 6735,
      "AIL": 6736,
      "Ġslightly": 6737,
      "ĠTra": 6738,
      ".create": 6739,
      "ĠMet": 6740,
      "Ġell": 6741,
      "ç§į": 6742,
      "num": 6743,
      "Ġskills": 6744,
      "Ġobj": 6745,
      "Ġans": 6746,
      "{f": 6747,
      "Ġrout": 6748,
      "hold": 6749,
      "Ġdoc": 6750,
      "Ġsho": 6751,
      "\\leq": 6752,
      "Ġwild": 6753,
      "ç¨": 6754,
      "ĠBook": 6755,
      "}=\\": 6756,
      "Ġhus": 6757,
      "onic": 6758,
      "operator": 6759,
      "aud": 6760,
      "Ġdefinitely": 6761,
      "Ġdass": 6762,
      "oco": 6763,
      "Ġthick": 6764,
      "Ġfear": 6765,
      "Ġactions": 6766,
      "Ġcredit": 6767,
      "ijn": 6768,
      "Ġpowerful": 6769,
      "\\times": 6770,
      "ĠLord": 6771,
      "ç»ı": 6772,
      "anging": 6773,
      "Ġheavy": 6774,
      "oma": 6775,
      "Ġbon": 6776,
      "Ġsession": 6777,
      "Ġwer": 6778,
      "BA": 6779,
      "Ġplans": 6780,
      "\\pi": 6781,
      "Ġamaz": 6782,
      "Ġdamage": 6783,
      "åĿ": 6784,
      "itar": 6785,
      "cr": 6786,
      "ellig": 6787,
      "nn": 6788,
      "etime": 6789,
      "OK": 6790,
      "Ab": 6791,
      "ko": 6792,
      "Ġ\"\"\"Ċ": 6793,
      ".cl": 6794,
      "=>": 6795,
      "Ġsuccessful": 6796,
      "iento": 6797,
      "Ġdied": 6798,
      "Ġpp": 6799,
      "Ġhelps": 6800,
      "çĪ": 6801,
      "åĭ": 6802,
      "ĠAtt": 6803,
      "Const": 6804,
      "email": 6805,
      "Å¼": 6806,
      "Exp": 6807,
      "ĠTrue": 6808,
      "admin": 6809,
      "Ġtodo": 6810,
      "opyright": 6811,
      "ĠPo": 6812,
      "-H": 6813,
      "Ġstation": 6814,
      ".java": 6815,
      "Ġadjust": 6816,
      "dot": 6817,
      "parse": 6818,
      "Ġspent": 6819,
      "Ġshared": 6820,
      "-size": 6821,
      "Ġsales": 6822,
      "SD": 6823,
      "ĠĠĠĠĠĠĠĠĠĠĠĠĠĠĠĠĠĠĠĠĠ": 6824,
      "Ġhij": 6825,
      "bug": 6826,
      "Ġdella": 6827,
      "duc": 6828,
      "âĢĻun": 6829,
      "Ġdaily": 6830,
      "Ġargs": 6831,
      "ĠBritish": 6832,
      "iforn": 6833,
      "Ġinfo": 6834,
      "Ġlose": 6835,
      "Ġrend": 6836,
      "Ġeffort": 6837,
      "stream": 6838,
      "rd": 6839,
      "count": 6840,
      ".J": 6841,
      "rot": 6842,
      "éĹ´": 6843,
      "ĠAlthough": 6844,
      "Ġinterested": 6845,
      "_file": 6846,
      "options": 6847,
      "alled": 6848,
      "![": 6849,
      "ĠCheck": 6850,
      "Ġdur": 6851,
      "Ġletter": 6852,
      "igr": 6853,
      "anta": 6854,
      "anned": 6855,
      "Ġnovel": 6856,
      "Ġwalked": 6857,
      "Ġencour": 6858,
      "ariant": 6859,
      "reement": 6860,
      "-the": 6861,
      "ĠJul": 6862,
      "Ġtag": 6863,
      "Ġtesting": 6864,
      "Ġsea": 6865,
      "ä½¿": 6866,
      "Ġmist": 6867,
      "PT": 6868,
      "Well": 6869,
      "Ġspot": 6870,
      "ãģĨ": 6871,
      "{n": 6872,
      "ERR": 6873,
      "chema": 6874,
      "(R": 6875,
      "Inst": 6876,
      "allel": 6877,
      "Ġsell": 6878,
      "rapy": 6879,
      "ĠHT": 6880,
      "ORD": 6881,
      "asi": 6882,
      "bin": 6883,
      "oder": 6884,
      "Ġproduced": 6885,
      "///": 6886,
      "ORT": 6887,
      "Ġinterview": 6888,
      "appro": 6889,
      "ĠLin": 6890,
      "Ġappropriate": 6891,
      "ìĦľ": 6892,
      "Ġdanger": 6893,
      "Ġult": 6894,
      "Ġholds": 6895,
      "_e": 6896,
      "wer": 6897,
      "Long": 6898,
      "ĉs": 6899,
      "asy": 6900,
      "{čĊ": 6901,
      "orial": 6902,
      "Ġcloud": 6903,
      "Ġsummer": 6904,
      "Ġmissing": 6905,
      "Hel": 6906,
      ".âĢĻĊ": 6907,
      "Ġexpand": 6908,
      "Ġprojects": 6909,
      "tee": 6910,
      "wid": 6911,
      "ĠInc": 6912,
      "olar": 6913,
      "Ġê·¸": 6914,
      "ĠPhil": 6915,
      "Ġupper": 6916,
      "-R": 6917,
      "åĽł": 6918,
      "Update": 6919,
      "Off": 6920,
      "ques": 6921,
      "phone": 6922,
      "Ġpadding": 6923,
      "Ġran": 6924,
      "ALL": 6925,
      "encia": 6926,
      "ãģĹãģ¦": 6927,
      "Ġgenerate": 6928,
      "vas": 6929,
      "Ã½": 6930,
      "\"\"": 6931,
      "rowser": 6932,
      "Ġadult": 6933,
      "Ġbirth": 6934,
      "bro": 6935,
      "ĠEnt": 6936,
      "Ġerrors": 6937,
      "igger": 6938,
      "Why": 6939,
      "Ġaux": 6940,
      "Ġren": 6941,
      "UG": 6942,
      "Ġho": 6943,
      "Ġstopped": 6944,
      "antic": 6945,
      "Ġharm": 6946,
      "ĠUs": 6947,
      "Ġauth": 6948,
      "ÑĤÐ°": 6949,
      "Ġvirtual": 6950,
      "ëı": 6951,
      "Ġju": 6952,
      "Ġnuc": 6953,
      "Listener": 6954,
      "ATION": 6955,
      "acement": 6956,
      "Ġappears": 6957,
      "ĠAssoci": 6958,
      "usiness": 6959,
      "inese": 6960,
      "Ġtransition": 6961,
      "Ã±o": 6962,
      "Are": 6963,
      "pective": 6964,
      "Url": 6965,
      "};ĊĊ": 6966,
      "Ġmaterials": 6967,
      "_ex": 6968,
      "Ġequip": 6969,
      "æŃ£": 6970,
      "Ġvisual": 6971,
      "ĠAND": 6972,
      "ĠModel": 6973,
      "aven": 6974,
      "Ġtrade": 6975,
      "Factory": 6976,
      ",âĢĻ": 6977,
      "Ġsymmet": 6978,
      "ĠPublic": 6979,
      "Ġpap": 6980,
      "åĬ¨": 6981,
      "None": 6982,
      "ossible": 6983,
      "Ġspin": 6984,
      "æĪĳä»¬": 6985,
      "Version": 6986,
      "ä¸İ": 6987,
      "ĠÐ¿ÑĢÐ¸": 6988,
      "{-": 6989,
      "Ġinstant": 6990,
      "ĠDepartment": 6991,
      "Bl": 6992,
      "Ġstrugg": 6993,
      "åħ¥": 6994,
      "Command": 6995,
      "parent": 6996,
      "sin": 6997,
      "Ð¸Ñħ": 6998,
      "etes": 6999,
      "Ð¸Ñģ": 7000,
      "Ġgain": 7001,
      "oir": 7002,
      "CR": 7003,
      "ĉthis": 7004,
      "Ġaren": 7005,
      "VID": 7006,
      "Ġsamples": 7007,
      "(y": 7008,
      "Ġscient": 7009,
      "Ġcit": 7010,
      "Ġsupported": 7011,
      "Ġpresident": 7012,
      "Ġbelong": 7013,
      "ĠTod": 7014,
      "Ġbow": 7015,
      "ìĸ": 7016,
      "Ġcustomer": 7017,
      "Ġunf": 7018,
      "cial": 7019,
      "Ġremains": 7020,
      "ë¦¬": 7021,
      "Ġprograms": 7022,
      "Ġê°": 7023,
      "Ġreasons": 7024,
      "Load": 7025,
      "build": 7026,
      "Ġadapt": 7027,
      "Ġvez": 7028,
      "ĠEX": 7029,
      "Ġearth": 7030,
      "Ġgrowing": 7031,
      "onn": 7032,
      "ometry": 7033,
      "ĠÑĦ": 7034,
      "Can": 7035,
      "ech": 7036,
      "ĠSund": 7037,
      "Ġratio": 7038,
      "osa": 7039,
      "aus": 7040,
      "iro": 7041,
      "Ġconfiguration": 7042,
      "Â»,": 7043,
      "ĠGood": 7044,
      "Ġesp": 7045,
      "Ġfuck": 7046,
      "lat": 7047,
      "Ġelectric": 7048,
      "Ġcaused": 7049,
      "olic": 7050,
      "allow": 7051,
      "Ġwhatever": 7052,
      "?ĊĊĊ": 7053,
      "ÑĸÐ²": 7054,
      "Ġ};Ċ": 7055,
      "Ã©d": 7056,
      "crete": 7057,
      "front": 7058,
      "Ġconsequ": 7059,
      "iana": 7060,
      "ĠSing": 7061,
      "Ġpou": 7062,
      "Ġseeing": 7063,
      "Ġlab": 7064,
      "Ġalign": 7065,
      "-G": 7066,
      "erved": 7067,
      "Ġdar": 7068,
      "Ġfait": 7069,
      "Ġstorage": 7070,
      "(String": 7071,
      "ocity": 7072,
      "Ġguard": 7073,
      "Ð¾Ð¶": 7074,
      "Ġprocesses": 7075,
      "}]": 7076,
      "è¶": 7077,
      "ĠDel": 7078,
      "ocker": 7079,
      "Ġraise": 7080,
      "EP": 7081,
      "Ġlibrary": 7082,
      "cs": 7083,
      "Î½": 7084,
      "ÑĬ": 7085,
      "Ġraised": 7086,
      "Ġtight": 7087,
      "cepted": 7088,
      "ĠÐł": 7089,
      "Ġoperations": 7090,
      "(data": 7091,
      "Ġorganization": 7092,
      "Ġincor": 7093,
      "ĠÃ¼ber": 7094,
      "$(": 7095,
      "omial": 7096,
      "iner": 7097,
      "é«ĺ": 7098,
      "vered": 7099,
      "ĠLes": 7100,
      "Ġexamples": 7101,
      "Ġsignificantly": 7102,
      "inates": 7103,
      "æŁ": 7104,
      ".name": 7105,
      "Note": 7106,
      "Back": 7107,
      "åįģ": 7108,
      "alysis": 7109,
      "aine": 7110,
      "ï»¿": 7111,
      "Ġextract": 7112,
      "CS": 7113,
      "icles": 7114,
      "iden": 7115,
      "anda": 7116,
      "Ñĺ": 7117,
      "^n": 7118,
      "ĠDi": 7119,
      "Ġappreci": 7120,
      "Server": 7121,
      "ÑĤÐ¾": 7122,
      "Ġmotion": 7123,
      "æĢ§": 7124,
      "Ġreduced": 7125,
      "Am": 7126,
      "Ġmovement": 7127,
      "ernel": 7128,
      "last": 7129,
      "Ġgro": 7130,
      ")/": 7131,
      "å®ŀ": 7132,
      "Ġeasier": 7133,
      "oria": 7134,
      "Figure": 7135,
      "Ġrelation": 7136,
      "Ġsurround": 7137,
      "æĸ°": 7138,
      "However": 7139,
      "ĠResearch": 7140,
      "break": 7141,
      "ĠAnn": 7142,
      "aked": 7143,
      "frame": 7144,
      "æĥħ": 7145,
      "kl": 7146,
      "rian": 7147,
      "(z": 7148,
      "Ġintr": 7149,
      "Ġmovie": 7150,
      "ville": 7151,
      "Ġahead": 7152,
      "ĠBecause": 7153,
      "ĠMax": 7154,
      "ĠĠĠĊ": 7155,
      "ĠRo": 7156,
      "ambi": 7157,
      "Ġcalls": 7158,
      "Default": 7159,
      "raf": 7160,
      "Ġborn": 7161,
      "Ġregarding": 7162,
      "Since": 7163,
      "Ġ^": 7164,
      "ifornia": 7165,
      "iÃ¨re": 7166,
      "isms": 7167,
      "ĠSuper": 7168,
      "Ġhaven": 7169,
      "namespace": 7170,
      "endif": 7171,
      "ĠStreet": 7172,
      "×ķ×": 7173,
      "alls": 7174,
      "Ġequations": 7175,
      "igo": 7176,
      "ĠGreat": 7177,
      "Label": 7178,
      ".Â«": 7179,
      "Ġflat": 7180,
      "Ġloop": 7181,
      "bi": 7182,
      "Ġpure": 7183,
      "Ġfre": 7184,
      "ĠFrench": 7185,
      "Ġdevices": 7186,
      ")^{": 7187,
      "Ġinterpret": 7188,
      ".net": 7189,
      "Ġvac": 7190,
      "wa": 7191,
      "Ġcancer": 7192,
      "ader": 7193,
      "lands": 7194,
      "Ġrestrict": 7195,
      "Ġlaugh": 7196,
      "Ġanti": 7197,
      "Ġplaced": 7198,
      "ĠÐ¿Ð¾": 7199,
      "ESS": 7200,
      "Ġagree": 7201,
      "abilities": 7202,
      "Ġcuando": 7203,
      "ĠAM": 7204,
      "idents": 7205,
      "{g": 7206,
      "uv": 7207,
      "Ġtraditional": 7208,
      "Ġkill": 7209,
      "Block": 7210,
      "Ġfill": 7211,
      "ĠJesus": 7212,
      "Ġthank": 7213,
      "ĠConst": 7214,
      "ĠTop": 7215,
      "ĠWell": 7216,
      "(C": 7217,
      "[width": 7218,
      "ä»£": 7219,
      "ĠLong": 7220,
      "çĽ¸": 7221,
      "?\"ĊĊ": 7222,
      "Ġsimpl": 7223,
      "ĠAp": 7224,
      "Ġcert": 7225,
      "ĠRob": 7226,
      "Ġminimum": 7227,
      "ĠEast": 7228,
      "ĠTH": 7229,
      "Ġring": 7230,
      "tot": 7231,
      "tegr": 7232,
      "Ġfu": 7233,
      "Ġhyper": 7234,
      "ĠQue": 7235,
      "Ġfrequency": 7236,
      "Ġìł": 7237,
      "Ġpaid": 7238,
      "hens": 7239,
      "Resource": 7240,
      "font": 7241,
      "ĠFound": 7242,
      "Ġfrag": 7243,
      "ĠReturn": 7244,
      "Ġcoe": 7245,
      "Ġnation": 7246,
      "IZ": 7247,
      "Ġappeared": 7248,
      "Ġjson": 7249,
      "asion": 7250,
      "aire": 7251,
      "Ġattract": 7252,
      "isa": 7253,
      ".assert": 7254,
      "Ġproviding": 7255,
      "widet": 7256,
      "Our": 7257,
      "vol": 7258,
      ",j": 7259,
      "ĠFriday": 7260,
      "ipp": 7261,
      "Ġunc": 7262,
      "Ġvent": 7263,
      "ÅĽ": 7264,
      "_y": 7265,
      "Ġë§": 7266,
      "Ġfell": 7267,
      "Ġdescribe": 7268,
      "Ġ>=": 7269,
      "ä»İ": 7270,
      "Ġmas": 7271,
      "acks": 7272,
      "ĠSk": 7273,
      "Web": 7274,
      "è¡¨": 7275,
      "å°Ĩ": 7276,
      "Ġcampaign": 7277,
      "Oper": 7278,
      "%Ċ": 7279,
      "**ĊĊ": 7280,
      "Ġrom": 7281,
      ")+": 7282,
      "ĠĠĠĠĠĠĠĠĠĠĠĠĠĠĠĠĠĠĠĠĠĠĠĠĠĠĠĠĠĠĠĠĠĠĠĠĠĠĠĠĠĠĠĠĠĠĠĠĠĠĠĠĠĠĠĠĠĠĠĠĠĠĠĠ": 7283,
      "onday": 7284,
      "Ġpare": 7285,
      "vention": 7286,
      "Select": 7287,
      "Ġselection": 7288,
      "è¢«": 7289,
      "ERS": 7290,
      "Ġscene": 7291,
      "ategories": 7292,
      "command": 7293,
      "Ġleaving": 7294,
      "Ġadding": 7295,
      "(A": 7296,
      "ĠAz": 7297,
      "Ġhappens": 7298,
      "Ġnoise": 7299,
      "ĠOh": 7300,
      "ĠId": 7301,
      "}),": 7302,
      "attr": 7303,
      "ashington": 7304,
      "Ġfinding": 7305,
      "(k": 7306,
      "äºĮ": 7307,
      "Layout": 7308,
      "iliar": 7309,
      "Ġformula": 7310,
      ".G": 7311,
      "Ġya": 7312,
      "Ġsam": 7313,
      "ĠBi": 7314,
      "agg": 7315,
      "Ġ<=": 7316,
      "udo": 7317,
      "Ġnach": 7318,
      "orter": 7319,
      "Ñĳ": 7320,
      "appe": 7321,
      "-T": 7322,
      "ĠGovern": 7323,
      "oting": 7324,
      "Ġknows": 7325,
      "Ġrelevant": 7326,
      "âĢ¦ĊĊ": 7327,
      "arden": 7328,
      "Ġdry": 7329,
      "Ġsupply": 7330,
      "omic": 7331,
      "bel": 7332,
      ",x": 7333,
      "Ġestaba": 7334,
      "\\%": 7335,
      "EC": 7336,
      "Ġbaby": 7337,
      "Ġmill": 7338,
      "?âĢĻ": 7339,
      "=(": 7340,
      "Ġodd": 7341,
      "ainer": 7342,
      ".php": 7343,
      "Ġsynt": 7344,
      "status": 7345,
      "ĠEuropean": 7346,
      "ART": 7347,
      "ĠCr": 7348,
      "èª": 7349,
      "ĉt": 7350,
      "Create": 7351,
      "dule": 7352,
      "ìľ": 7353,
      "Î¿": 7354,
      "Ġdit": 7355,
      "ĠFree": 7356,
      "osh": 7357,
      "\\{": 7358,
      "Ġmobile": 7359,
      "isp": 7360,
      "Ġsettings": 7361,
      "Ġefficient": 7362,
      "ĠGl": 7363,
      "cf": 7364,
      "Link": 7365,
      "Ġtrip": 7366,
      "ĠWhite": 7367,
      "ĠGreen": 7368,
      "èĦ": 7369,
      "widetilde": 7370,
      "({Ċ": 7371,
      ")}\\": 7372,
      "Ġmilitary": 7373,
      "ãĥ¼ãĤ": 7374,
      "Â».": 7375,
      "Ġreflect": 7376,
      "Ĥĺ": 7377,
      "Last": 7378,
      "Ġmac": 7379,
      "aten": 7380,
      "rics": 7381,
      "Valid": 7382,
      "Ġcro": 7383,
      "enter": 7384,
      "ĠGen": 7385,
      "Bar": 7386,
      "INT": 7387,
      "Ġtick": 7388,
      "Ġtransl": 7389,
      "Ġinde": 7390,
      "ĠCreate": 7391,
      "ĠView": 7392,
      "Ġentr": 7393,
      "Ġsquare": 7394,
      "Ġfinished": 7395,
      "UB": 7396,
      "Ġmanif": 7397,
      "Ġplot": 7398,
      "æŀľ": 7399,
      "ĊĠĊ": 7400,
      "Ġideal": 7401,
      "gent": 7402,
      "zeta": 7403,
      "âĢľYou": 7404,
      "aturday": 7405,
      "Ġbra": 7406,
      "Ġscience": 7407,
      "Ġjump": 7408,
      "Buffer": 7409,
      "IA": 7410,
      "Ġannounced": 7411,
      "ĠReview": 7412,
      "ĠEq": 7413,
      "é£": 7414,
      "ĠGold": 7415,
      "Ġestablish": 7416,
      "Ġinsurance": 7417,
      "FL": 7418,
      "ï¼Įä»ĸ": 7419,
      "asp": 7420,
      "ĠAD": 7421,
      "pecific": 7422,
      "src": 7423,
      "eless": 7424,
      "ali": 7425,
      "OUT": 7426,
      "å·²": 7427,
      "âĢĻav": 7428,
      "house": 7429,
      "Ġrace": 7430,
      "product": 7431,
      "info": 7432,
      "Control": 7433,
      "Ġ&=": 7434,
      "})Ċ": 7435,
      ".apache": 7436,
      "-color": 7437,
      "Ġstories": 7438,
      "Ġhadn": 7439,
      "Ġhous": 7440,
      "Su": 7441,
      "star": 7442,
      "Ġloved": 7443,
      "cdots": 7444,
      "ĠLu": 7445,
      "\"I": 7446,
      "Ġvor": 7447,
      ",n": 7448,
      "ĠConf": 7449,
      "×Ļ×": 7450,
      "imer": 7451,
      "ä½ĵ": 7452,
      "Attribute": 7453,
      "Ġserve": 7454,
      "Any": 7455,
      "ĠAS": 7456,
      "Pol": 7457,
      "ĠWho": 7458,
      "citep": 7459,
      "ĠHand": 7460,
      "Ġdiagn": 7461,
      "Ð´Ð°": 7462,
      "Ġchain": 7463,
      "arts": 7464,
      "ĠChristian": 7465,
      "ĠLou": 7466,
      "elo": 7467,
      "container": 7468,
      "\\to": 7469,
      "textit": 7470,
      "ĠMichael": 7471,
      "âĶĢâĶĢ": 7472,
      "Ġspecified": 7473,
      "(w": 7474,
      "Ġê²": 7475,
      "Ġcentury": 7476,
      "Ġstars": 7477,
      ".sp": 7478,
      "Ġhusband": 7479,
      "ĠIsra": 7480,
      "Ġestablished": 7481,
      "Click": 7482,
      "ĠSi": 7483,
      "Ġinfluence": 7484,
      "hab": 7485,
      "URL": 7486,
      "Ġwie": 7487,
      "Rem": 7488,
      "çģ": 7489,
      ".py": 7490,
      "Ġspend": 7491,
      "ismo": 7492,
      "agen": 7493,
      "ansion": 7494,
      "-k": 7495,
      "Ġrapid": 7496,
      "ĠFrance": 7497,
      "ĠÃº": 7498,
      "ctx": 7499,
      "<p": 7500,
      "Mode": 7501,
      "eles": 7502,
      "Ġdoll": 7503,
      "Åĳ": 7504,
      "åĲĪ": 7505,
      ".class": 7506,
      "Ġmedic": 7507,
      "Ġsugar": 7508,
      "Ġtoken": 7509,
      "Ġsust": 7510,
      "ponents": 7511,
      "Ġintroduced": 7512,
      "Ġele": 7513,
      "ĠText": 7514,
      "fill": 7515,
      "Ġolder": 7516,
      "cia": 7517,
      "Ġmole": 7518,
      "apped": 7519,
      "ye": 7520,
      "Ġseparate": 7521,
      "Vis": 7522,
      "Ġquel": 7523,
      "Ġguys": 7524,
      "mid": 7525,
      "Ġ+Ċ": 7526,
      "acket": 7527,
      "Ġlearned": 7528,
      "Ġship": 7529,
      "arante": 7530,
      "æ²¡æľī": 7531,
      "Ġdiscussion": 7532,
      "inos": 7533,
      "NN": 7534,
      "Ġcovered": 7535,
      "oon": 7536,
      "Å«": 7537,
      ";&": 7538,
      "åĨħ": 7539,
      "unity": 7540,
      "osite": 7541,
      "Ġexcellent": 7542,
      ".size": 7543,
      "rapper": 7544,
      "ILE": 7545,
      "Ġconstraint": 7546,
      "ĠName": 7547,
      "iciency": 7548,
      "ĠDev": 7549,
      "èĤ": 7550,
      "ÐµÐ»ÑĮ": 7551,
      "Ġsociety": 7552,
      "Ġpreviously": 7553,
      "ols": 7554,
      "Ð»ÑĮ": 7555,
      "Ġ\"/": 7556,
      "Ġseconds": 7557,
      "/G": 7558,
      "untime": 7559,
      "Ġpad": 7560,
      "Ġcategory": 7561,
      "Ġcoff": 7562,
      "Ġadvantage": 7563,
      "ĠLos": 7564,
      "Ġfort": 7565,
      "Ġframework": 7566,
      "Ver": 7567,
      "Ġkilled": 7568,
      "ingu": 7569,
      "van": 7570,
      "Ġsmart": 7571,
      "aze": 7572,
      "ologies": 7573,
      "âĢĻai": 7574,
      "Ġsufficient": 7575,
      "actor": 7576,
      "Ġtit": 7577,
      "Ġcette": 7578,
      "iene": 7579,
      "Ġdoubt": 7580,
      "}).": 7581,
      "omin": 7582,
      "Ġtempor": 7583,
      "å¤ĸ": 7584,
      "ĠPR": 7585,
      "rome": 7586,
      "While": 7587,
      "Ġalbum": 7588,
      "Ġdaughter": 7589,
      "å·±": 7590,
      "ROM": 7591,
      "afe": 7592,
      "Ġmad": 7593,
      "Ġseven": 7594,
      "ĠTwo": 7595,
      "ĠEach": 7596,
      "ĠâĢ¢": 7597,
      "empty": 7598,
      "ĠWed": 7599,
      "{m": 7600,
      "Ġremoved": 7601,
      "Ġsyn": 7602,
      "lements": 7603,
      "Ġextremely": 7604,
      "åł": 7605,
      "åº¦": 7606,
      "ĠThanks": 7607,
      "ĠDevelop": 7608,
      "Ġbrief": 7609,
      "Ġoffered": 7610,
      "car": 7611,
      "åħ¬": 7612,
      "Ġsweet": 7613,
      "(_": 7614,
      "Ġprepar": 7615,
      "Ġquiet": 7616,
      "Ġidentity": 7617,
      "Ġthoughts": 7618,
      "mal": 7619,
      "ĠLo": 7620,
      "Ġshowing": 7621,
      "Ġbright": 7622,
      "Ġgod": 7623,
      "ĠMer": 7624,
      "lik": 7625,
      ".Add": 7626,
      "hl": 7627,
      ">Title": 7628,
      "Ġthanks": 7629,
      "{k": 7630,
      "imensional": 7631,
      "Ġhighest": 7632,
      "vant": 7633,
      "hal": 7634,
      "Ġprocedure": 7635,
      "Address": 7636,
      "CM": 7637,
      "Format": 7638,
      "Ġenem": 7639,
      "reme": 7640,
      "Ġemb": 7641,
      "Ġreports": 7642,
      "isode": 7643,
      "Ã¤r": 7644,
      "ĠCalifornia": 7645,
      "-x": 7646,
      "Ne": 7647,
      "Ġleads": 7648,
      "Ġplanning": 7649,
      "Ġuma": 7650,
      "Ġ##": 7651,
      "Ġmine": 7652,
      "Right": 7653,
      "Some": 7654,
      "Ġboundary": 7655,
      "åħ¨": 7656,
      "Ġrain": 7657,
      "linear": 7658,
      "ĠElle": 7659,
      "Ġdrug": 7660,
      "agger": 7661,
      "Ġhospital": 7662,
      "Ġdimension": 7663,
      "åķ": 7664,
      "Ġexpert": 7665,
      "Ġfavorite": 7666,
      "ĠMany": 7667,
      "Ġoch": 7668,
      "ĠEngland": 7669,
      "efined": 7670,
      "Ġunits": 7671,
      "These": 7672,
      "/lib": 7673,
      "ĠLike": 7674,
      "Ġpsych": 7675,
      "icated": 7676,
      "Ġpages": 7677,
      "ĠPlease": 7678,
      "ĠÐ¸Ð·": 7679,
      "Ġlean": 7680,
      "ĠĠĊĊ": 7681,
      "Ġella": 7682,
      "Ð¾Ð²Ð°Ð½": 7683,
      "Ġequivalent": 7684,
      "ĠSunday": 7685,
      "Chapter": 7686,
      "Ġtut": 7687,
      "CTION": 7688,
      "dir": 7689,
      "================================": 7690,
      "ÙĦ": 7691,
      "Ġhatte": 7692,
      "Ġtemplate": 7693,
      "é»": 7694,
      "Ġrequirements": 7695,
      "olved": 7696,
      "hemat": 7697,
      "è¿Ľ": 7698,
      "Ġcamera": 7699,
      "Ġimplementation": 7700,
      "ĠJournal": 7701,
      "å¾Ī": 7702,
      "Ġvi": 7703,
      "Ġpool": 7704,
      "Ġconsult": 7705,
      "AND": 7706,
      "Ġenv": 7707,
      "anted": 7708,
      "Ġdifferen": 7709,
      "Ð¸Ðº": 7710,
      "Ġmonitor": 7711,
      "Ġshoot": 7712,
      "PR": 7713,
      "Ġprofile": 7714,
      "(),Ċ": 7715,
      "Ġvehicle": 7716,
      "ÐµÐ½Ð¸Ñı": 7717,
      "Ġdriver": 7718,
      "çł": 7719,
      "INE": 7720,
      "-term": 7721,
      "Ġchurch": 7722,
      "Ġfue": 7723,
      "ĠOnce": 7724,
      "Ġ.Ċ": 7725,
      "Ġkiss": 7726,
      "Ġgrab": 7727,
      "Ġidentify": 7728,
      "{(": 7729,
      "icol": 7730,
      "ĠFil": 7731,
      "\"/": 7732,
      "è¥": 7733,
      "Ġtechniques": 7734,
      "=\"#": 7735,
      "iano": 7736,
      "\\u": 7737,
      "AX": 7738,
      "ĠÐĵ": 7739,
      "ĠLand": 7740,
      "ĉvar": 7741,
      "ĠAccepted": 7742,
      "Ġrare": 7743,
      "Ġprotein": 7744,
      "Ġlargest": 7745,
      "(const": 7746,
      "bool": 7747,
      "Function": 7748,
      "Ġextension": 7749,
      "Ãºn": 7750,
      "ĠCanada": 7751,
      "ĠPlay": 7752,
      "Just": 7753,
      "cht": 7754,
      "AY": 7755,
      "-and": 7756,
      "Ġruns": 7757,
      "remove": 7758,
      "Ġhealthy": 7759,
      "GB": 7760,
      "otion": 7761,
      "ixed": 7762,
      "eler": 7763,
      "Ġintent": 7764,
      "Ġassign": 7765,
      "{tabular": 7766,
      "Http": 7767,
      "Ġuniform": 7768,
      "Work": 7769,
      "ĠBig": 7770,
      "Go": 7771,
      "ç¥ŀ": 7772,
      "Ġrestaur": 7773,
      "Dev": 7774,
      "eld": 7775,
      "åĸ": 7776,
      "ĠFurther": 7777,
      "Ġagreed": 7778,
      "èĬ": 7779,
      "Ġol": 7780,
      "\\caption": 7781,
      "ĠMary": 7782,
      "Ġauch": 7783,
      "Ð°Ð»ÑĮ": 7784,
      "ç±": 7785,
      "Ġshock": 7786,
      "Ġpolic": 7787,
      "Ġfilled": 7788,
      "ĠÐ¢": 7789,
      "INFO": 7790,
      "ĠFrank": 7791,
      "Ġneighbor": 7792,
      "fol": 7793,
      "âĢĶâĢĶ": 7794,
      "Ġholding": 7795,
      "Ġmarketing": 7796,
      "Ġpeace": 7797,
      "Ġrepresentation": 7798,
      "mi": 7799,
      "show": 7800,
      "Ġcaught": 7801,
      "gener": 7802,
      "âĢĿ.": 7803,
      "Ġwatching": 7804,
      "Ġcombination": 7805,
      "ums": 7806,
      "ĠCap": 7807,
      "May": 7808,
      "Ġsusp": 7809,
      "Ġnodded": 7810,
      "unning": 7811,
      "rait": 7812,
      "();čĊ": 7813,
      "auth": 7814,
      "(l": 7815,
      "ĠAustralia": 7816,
      "ĠProf": 7817,
      "Ġforces": 7818,
      "Ġfarm": 7819,
      "Ġfamilies": 7820,
      "Ġcarried": 7821,
      "{e": 7822,
      "å¤´": 7823,
      "amin": 7824,
      "ĠSil": 7825,
      "Ġaf": 7826,
      "utr": 7827,
      "Ġ('": 7828,
      "river": 7829,
      "Ġopening": 7830,
      "uto": 7831,
      "[:": 7832,
      "Ġ\"<": 7833,
      "chr": 7834,
      "Ġboost": 7835,
      "ĠCD": 7836,
      "odies": 7837,
      "ĠMem": 7838,
      "})\\": 7839,
      "riage": 7840,
      "ĠChinese": 7841,
      "Ġslowly": 7842,
      "Ð¡": 7843,
      "FFFF": 7844,
      "_time": 7845,
      "Ð°Ð¼": 7846,
      "ĠJer": 7847,
      "process": 7848,
      "pack": 7849,
      "ìĬ": 7850,
      "first": 7851,
      "éĢļ": 7852,
      "module": 7853,
      "IX": 7854,
      "ĠPeople": 7855,
      "acle": 7856,
      "ĠYes": 7857,
      "Ġeth": 7858,
      "Ġdiscussed": 7859,
      "Ġpros": 7860,
      "Ġcontroll": 7861,
      "Ġhell": 7862,
      "Frame": 7863,
      "alg": 7864,
      "Ġcontrast": 7865,
      "False": 7866,
      "Ġinternet": 7867,
      "èĩªå·±": 7868,
      "ĠMaybe": 7869,
      "ĠHen": 7870,
      "ĠPower": 7871,
      "Ġnur": 7872,
      "Ġrub": 7873,
      "Ġteams": 7874,
      "ãĥ³ãĥ": 7875,
      ".'": 7876,
      "Ġcorner": 7877,
      "Ġweap": 7878,
      "ĠDu": 7879,
      "Ġmagn": 7880,
      "ĠĠĠĠĠĠĠĠĠĠĠĠĠĠĠĠĠĠĠĠĠĠĠĠĠĠĠĠĠĠĠĠĠĠĠĠĠĠĠ": 7881,
      "ãĢĤâĢĿĊ": 7882,
      "Äĩ": 7883,
      "othe": 7884,
      "Ġ}}": 7885,
      "ĠScience": 7886,
      "Ġroute": 7887,
      "annot": 7888,
      "produ": 7889,
      "ecut": 7890,
      "Ġinvestment": 7891,
      "Ġ|ĊĊ": 7892,
      "Ġarchitect": 7893,
      "å»": 7894,
      "Ġhelped": 7895,
      "Mon": 7896,
      "Ġstanding": 7897,
      "Ġcomments": 7898,
      "omy": 7899,
      "ĠPlan": 7900,
      "ĠGal": 7901,
      "auto": 7902,
      "ipped": 7903,
      "Ġbattle": 7904,
      "Ġcapacity": 7905,
      "cat": 7906,
      "ĠExt": 7907,
      "ä½į": 7908,
      "Filter": 7909,
      "Ġdepth": 7910,
      "Ġdoctor": 7911,
      "Ġthr": 7912,
      "/or": 7913,
      "AV": 7914,
      "Ġplane": 7915,
      "Ġdream": 7916,
      "lets": 7917,
      "Ġ(*": 7918,
      "Ġwurde": 7919,
      "Ġthrows": 7920,
      "Ġguide": 7921,
      "âĢĶÂ¿": 7922,
      ">,": 7923,
      "Ġbenefit": 7924,
      "Ġcommunication": 7925,
      "ĠCourt": 7926,
      "entity": 7927,
      "ãĢĭ": 7928,
      "Ġfaith": 7929,
      "Ġidentified": 7930,
      "buf": 7931,
      "Ġapart": 7932,
      "Ġbond": 7933,
      "Ġdifferences": 7934,
      "Ġexhib": 7935,
      "ĠWil": 7936,
      "oded": 7937,
      "Ġking": 7938,
      "Ġcollege": 7939,
      "Ġworry": 7940,
      "gers": 7941,
      "Style": 7942,
      "_value": 7943,
      "Ġsuddenly": 7944,
      "ĠInitial": 7945,
      "ãĢĬ": 7946,
      "reedom": 7947,
      "Ġoccup": 7948,
      "Ġshut": 7949,
      "Ġdistinct": 7950,
      "Ġru": 7951,
      "ĠWashington": 7952,
      "ĠestÃ¡": 7953,
      "Ġcash": 7954,
      "Ġbalance": 7955,
      "Ġreality": 7956,
      "ĠUnder": 7957,
      "ungen": 7958,
      "scious": 7959,
      "(function": 7960,
      ".jpg": 7961,
      "ffff": 7962,
      "Ġmetal": 7963,
      "ĠPet": 7964,
      "Ġorigin": 7965,
      "resents": 7966,
      "tx": 7967,
      "AGE": 7968,
      "Ġtrend": 7969,
      "=True": 7970,
      "ensure": 7971,
      "Ġpued": 7972,
      "Child": 7973,
      "âĢī": 7974,
      "ĠFranc": 7975,
      "FT": 7976,
      "Ġrich": 7977,
      "lean": 7978,
      "ortunately": 7979,
      "ë§": 7980,
      ")|": 7981,
      "ĠnÃ£o": 7982,
      "ĠĠĠĠĠĠĠĠĠĠĠĠĠĠĠĠĠĠĠĠ": 7983,
      "ĠBre": 7984,
      "ĠMake": 7985,
      "Ġcrow": 7986,
      "ĠÐŀ": 7987,
      "ende": 7988,
      "Ġexternal": 7989,
      "home": 7990,
      "BS": 7991,
      "Ġalternative": 7992,
      "éľ": 7993,
      "Ġreli": 7994,
      "itness": 7995,
      "ĠRobert": 7996,
      "ĠSl": 7997,
      "lies": 7998,
      "ariable": 7999,
      "Pre": 8000,
      "ampions": 8001,
      "Ġluck": 8002,
      "Ġgeneration": 8003,
      "real": 8004,
      "ĉcase": 8005,
      "Ġforg": 8006,
      "çŃī": 8007,
      "Ġcontaining": 8008,
      "Ġhighlight": 8009,
      "rict": 8010,
      "ĠGeorge": 8011,
      "bal": 8012,
      "ĠDen": 8013,
      "ische": 8014,
      "Ġmedium": 8015,
      "Ġquantum": 8016,
      "Ġincome": 8017,
      "ĠBay": 8018,
      "Ġsplit": 8019,
      "èģ": 8020,
      "float": 8021,
      "stein": 8022,
      "oz": 8023,
      "{K": 8024,
      "ĠBas": 8025,
      "ĠNon": 8026,
      "éĩį": 8027,
      "ÂłÂłÂłÂłÂłÂłÂłÂł": 8028,
      "Ġhabit": 8029,
      "}|": 8030,
      "gle": 8031,
      "Ġinner": 8032,
      "rency": 8033,
      "Ġattend": 8034,
      "Ġfant": 8035,
      "Ġsont": 8036,
      "Ġ(\"": 8037,
      "Ġchest": 8038,
      "Open": 8039,
      "ãģĻãĤĭ": 8040,
      "she": 8041,
      "Î¹": 8042,
      "Ġupdated": 8043,
      "Ġchair": 8044,
      "Ġ});ĊĊ": 8045,
      "Ġdeux": 8046,
      "_add": 8047,
      "Ġadopt": 8048,
      "Ġestimate": 8049,
      "Ġunivers": 8050,
      "ori": 8051,
      "ounce": 8052,
      "ĠSupp": 8053,
      "Ġnodes": 8054,
      "Fe": 8055,
      "ê¸°": 8056,
      "Provider": 8057,
      "ĠPhys": 8058,
      "Ġlips": 8059,
      "Ġvie": 8060,
      "Ġgra": 8061,
      "ĠAv": 8062,
      "Ġagent": 8063,
      "ä»Ģ": 8064,
      "ĠJew": 8065,
      "Ġtruly": 8066,
      "annels": 8067,
      "byte": 8068,
      "ĠEt": 8069,
      "ĠResult": 8070,
      "Ġresulting": 8071,
      "Ġradio": 8072,
      "ĠISBN": 8073,
      "ĠsÃ©": 8074,
      "-N": 8075,
      "More": 8076,
      "ĠCompany": 8077,
      "kit": 8078,
      ",b": 8079,
      "Ġsolve": 8080,
      "Ġcontinuous": 8081,
      "utely": 8082,
      "Ġgirls": 8083,
      "FC": 8084,
      "è¥¿": 8085,
      "Ġsupposed": 8086,
      "ĠMicrosoft": 8087,
      "Ġmask": 8088,
      "ĠCH": 8089,
      "Ġcomparison": 8090,
      "iente": 8091,
      "Ð¾Ð»ÑĮ": 8092,
      "_of": 8093,
      "case": 8094,
      "ĠLi": 8095,
      "Next": 8096,
      "ĠMonday": 8097,
      "åĬł": 8098,
      "Ġamazing": 8099,
      "Ġstick": 8100,
      "ĠLuc": 8101,
      "Ġsexual": 8102,
      "idel": 8103,
      "eto": 8104,
      "ĠLemma": 8105,
      "Ġchallenge": 8106,
      "Ġinnov": 8107,
      "icious": 8108,
      "Ġrise": 8109,
      "Ġprepared": 8110,
      "ç¦": 8111,
      "ĠSaturday": 8112,
      "Ġhidden": 8113,
      "kk": 8114,
      "ĠKey": 8115,
      "ĠUsing": 8116,
      ".push": 8117,
      "Ġkid": 8118,
      "Ġ\"\\": 8119,
      "ĠArray": 8120,
      "Ġunless": 8121,
      "Ġinteraction": 8122,
      "ila": 8123,
      "ĠFalse": 8124,
      "ashion": 8125,
      "/M": 8126,
      "Ã©m": 8127,
      "ĠProject": 8128,
      "Ã»": 8129,
      "Ġcomplic": 8130,
      "ä¿¡": 8131,
      "ems": 8132,
      "ĠLeg": 8133,
      "ĠDet": 8134,
      "ummies": 8135,
      "-th": 8136,
      "Ġviews": 8137,
      "Ġsans": 8138,
      "$.ĊĊ": 8139,
      "Ġtypically": 8140,
      "/L": 8141,
      "âĪĴ": 8142,
      "Ġwhom": 8143,
      "{r": 8144,
      "_DE": 8145,
      "Ġpartners": 8146,
      "()->": 8147,
      "ĠmÃªme": 8148,
      "Ġchosen": 8149,
      "Ġimplies": 8150,
      "ĠGerman": 8151,
      "Ġmeasures": 8152,
      "Ġgoals": 8153,
      "ĠExp": 8154,
      "Ġcloser": 8155,
      "è£": 8156,
      "Ġaz": 8157,
      "ĠCollege": 8158,
      "Ġstreet": 8159,
      "ãģı": 8160,
      "ĠTheir": 8161,
      "ĨĴ": 8162,
      "tml": 8163,
      "ĠVis": 8164,
      "small": 8165,
      ".print": 8166,
      "Ġiter": 8167,
      "ĊĊĊĊĊĊĊĊ": 8168,
      "qquad": 8169,
      "ëıĦ": 8170,
      "Ġpropos": 8171,
      "DS": 8172,
      "ĠHome": 8173,
      "Ġphen": 8174,
      "even": 8175,
      "Ã±os": 8176,
      "ä¸ĸ": 8177,
      "Ġmiles": 8178,
      "{a": 8179,
      "\\big": 8180,
      "Ġpurchase": 8181,
      "ims": 8182,
      "Ġpanel": 8183,
      "çī©": 8184,
      "ĠRepublic": 8185,
      "ĠUSA": 8186,
      "ih": 8187,
      "ku": 8188,
      "ï¬ģ": 8189,
      "Ġworkers": 8190,
      "-W": 8191,
      "Ġsmiled": 8192,
      "sor": 8193,
      "Ass": 8194,
      ".value": 8195,
      "æĬĬ": 8196,
      "Ġmanaged": 8197,
      "Ġprices": 8198,
      "isch": 8199,
      "Ġdress": 8200,
      "Ġminute": 8201,
      "ĠMrs": 8202,
      "(*": 8203,
      "anner": 8204,
      "ĠSum": 8205,
      "Ġ###": 8206,
      "Ġclients": 8207,
      "Ġremaining": 8208,
      "Ġangle": 8209,
      "à¤¾": 8210,
      "ĠChurch": 8211,
      "uesday": 8212,
      "Ġdetail": 8213,
      "Ġ},": 8214,
      "à§ģ": 8215,
      "Îµ": 8216,
      "(g": 8217,
      "Arg": 8218,
      "Ġtrees": 8219,
      "orig": 8220,
      "centering": 8221,
      "Ġmental": 8222,
      "EO": 8223,
      "di": 8224,
      "åĮĸ": 8225,
      "Ġguarante": 8226,
      "Ġcommerc": 8227,
      "note": 8228,
      "Ġdepends": 8229,
      "empor": 8230,
      "Ã§a": 8231,
      "Ġleaves": 8232,
      "Ġlabor": 8233,
      "agr": 8234,
      "ursday": 8235,
      "Change": 8236,
      "Ġmeasured": 8237,
      "venue": 8238,
      "Ġliqu": 8239,
      "Ġhur": 8240,
      "rence": 8241,
      "Ġwid": 8242,
      "Ã¼ck": 8243,
      "ĠCong": 8244,
      "Ġinstr": 8245,
      "Ġasync": 8246,
      "ãĤĪ": 8247,
      "SET": 8248,
      "Ġgest": 8249,
      "Ġjoint": 8250,
      "Ġneck": 8251,
      "ĠìĹ": 8252,
      "ĠDiv": 8253,
      "Ġ'<": 8254,
      "Ġpossibly": 8255,
      "Ġalgebra": 8256,
      "ĠIndian": 8257,
      "Ġlaws": 8258,
      "ston": 8259,
      "Task": 8260,
      "Ġbillion": 8261,
      "ĠParis": 8262,
      "PA": 8263,
      "Ġregions": 8264,
      "{X": 8265,
      "Ġresponsible": 8266,
      "ifications": 8267,
      "acebook": 8268,
      "aws": 8269,
      "ĠâĪĴ": 8270,
      "Ġtables": 8271,
      "Ġsister": 8272,
      "Ġfif": 8273,
      "ĠLife": 8274,
      "ï¼Įè¿Ļ": 8275,
      "pers": 8276,
      "Ġindeed": 8277,
      "Ġfaire": 8278,
      "war": 8279,
      "Ġ\\{": 8280,
      "Ġbatter": 8281,
      "Ġtip": 8282,
      "Ġpeak": 8283,
      "yg": 8284,
      "false": 8285,
      "ĠStar": 8286,
      "uri": 8287,
      "reshold": 8288,
      "Ġderiv": 8289,
      "faces": 8290,
      "omain": 8291,
      "Ġexistence": 8292,
      "ITY": 8293,
      "Ġkeeping": 8294,
      "ãĤ·": 8295,
      "Ġtan": 8296,
      "abil": 8297,
      "~~~~": 8298,
      "Ġevolution": 8299,
      "Ġcoffee": 8300,
      "_ID": 8301,
      "Ġcurve": 8302,
      "DR": 8303,
      "sey": 8304,
      "Ð¸Ð¸": 8305,
      "Ġtab": 8306,
      "ĠSun": 8307,
      "standing": 8308,
      "Ġremark": 8309,
      "Ġbag": 8310,
      "Ġagreement": 8311,
      "ä¸¤": 8312,
      "rior": 8313,
      "Ġexplicit": 8314,
      "ĠJo": 8315,
      "ĠOnly": 8316,
      "Ġcalling": 8317,
      "iki": 8318,
      "ãģķãĤĮ": 8319,
      "ĠChristmas": 8320,
      "çĽ®": 8321,
      "ĠRad": 8322,
      "Ġbroken": 8323,
      "å¥³": 8324,
      "kg": 8325,
      "Ġkitchen": 8326,
      "itors": 8327,
      "Ġrelax": 8328,
      "Met": 8329,
      "Br": 8330,
      "Ġchanging": 8331,
      "Ġsports": 8332,
      "Ã¤t": 8333,
      "tag": 8334,
      "Non": 8335,
      "çµ": 8336,
      "ĠCode": 8337,
      "utils": 8338,
      "Ġarguments": 8339,
      "See": 8340,
      "ĠPeter": 8341,
      "lict": 8342,
      "Ġsitting": 8343,
      "dk": 8344,
      "antes": 8345,
      "åıĪ": 8346,
      "onym": 8347,
      "iche": 8348,
      "Ġexplained": 8349,
      "hetic": 8350,
      "-old": 8351,
      "Max": 8352,
      "ĠTex": 8353,
      "æ·": 8354,
      "ĠGrand": 8355,
      "ĠEll": 8356,
      ".ĊĊĊĊ": 8357,
      ")*": 8358,
      "umerate": 8359,
      "Process": 8360,
      "pert": 8361,
      "Eng": 8362,
      "ĉthe": 8363,
      "Script": 8364,
      "Ġequipment": 8365,
      "Ġauss": 8366,
      "è§ģ": 8367,
      "Psi": 8368,
      "chers": 8369,
      "Ġsky": 8370,
      "Types": 8371,
      "Ġforeign": 8372,
      "sembly": 8373,
      "Ġice": 8374,
      "Ġreaction": 8375,
      "Ġconcentr": 8376,
      "Top": 8377,
      "æ¬¡": 8378,
      "Equals": 8379,
      "ĠAR": 8380,
      "Ġtherm": 8381,
      "nesday": 8382,
      "Ġhall": 8383,
      "Ġhier": 8384,
      "ructions": 8385,
      "ĠEqu": 8386,
      "jos": 8387,
      "eah": 8388,
      "rule": 8389,
      "ĠLook": 8390,
      "Row": 8391,
      "{Z": 8392,
      "ĠReal": 8393,
      "eder": 8394,
      "inger": 8395,
      "ilos": 8396,
      "ĠWilliam": 8397,
      "Ġexchange": 8398,
      "Ġcivil": 8399,
      "click": 8400,
      "Ġsolo": 8401,
      "Ġfle": 8402,
      "Ġinteger": 8403,
      "Ġconven": 8404,
      "ä»¶": 8405,
      ".pdf": 8406,
      "Case": 8407,
      "ĠDer": 8408,
      "(G": 8409,
      "Ġdespite": 8410,
      "Ġgrid": 8411,
      "imo": 8412,
      "çī¹": 8413,
      "Ġcompleted": 8414,
      "\\rangle": 8415,
      "ĠTor": 8416,
      "âĢĿ,": 8417,
      "Ġhydro": 8418,
      "Ġgun": 8419,
      "Ġclim": 8420,
      "çİĭ": 8421,
      "Ġstarts": 8422,
      "(B": 8423,
      "expected": 8424,
      "uda": 8425,
      "ictionary": 8426,
      "Dec": 8427,
      "Ġembed": 8428,
      "{}": 8429,
      "++)": 8430,
      "Ġdirectory": 8431,
      "Ġbis": 8432,
      "ãĥ¬": 8433,
      "req": 8434,
      "Ġbehavi": 8435,
      "PP": 8436,
      "));ĊĊ": 8437,
      "Level": 8438,
      "ĠMath": 8439,
      "Ġspaces": 8440,
      "ynomial": 8441,
      "Ġincreases": 8442,
      "equiv": 8443,
      "OC": 8444,
      "xture": 8445,
      "ĠStart": 8446,
      "Ġsalt": 8447,
      "Ġë°": 8448,
      "ono": 8449,
      "ÑĸÐ´": 8450,
      ",k": 8451,
      "Ġsand": 8452,
      "Order": 8453,
      "ilton": 8454,
      "rat": 8455,
      "Ġdelete": 8456,
      "Ġlift": 8457,
      "project": 8458,
      "Ġeigen": 8459,
      "cit": 8460,
      "Ġdriving": 8461,
      "}^\\": 8462,
      "ftware": 8463,
      "reek": 8464,
      "Ġtasks": 8465,
      "ĠMain": 8466,
      "Ġconversation": 8467,
      "ĉd": 8468,
      "framework": 8469,
      "Ġfamiliar": 8470,
      "mut": 8471,
      "Ġleader": 8472,
      "RI": 8473,
      "èĻ": 8474,
      "Ġcart": 8475,
      "Ġfailure": 8476,
      "ĠRequ": 8477,
      "Ke": 8478,
      "ĠBack": 8479,
      "/S": 8480,
      "Dep": 8481,
      "esch": 8482,
      "(u": 8483,
      "Ġmanager": 8484,
      "sect": 8485,
      "grade": 8486,
      "grid": 8487,
      "æ¥": 8488,
      "ĠFore": 8489,
      "ITH": 8490,
      "han": 8491,
      "Ġforget": 8492,
      "ova": 8493,
      "Ġschools": 8494,
      "icial": 8495,
      "isted": 8496,
      "/n": 8497,
      "ãģĹãģŁ": 8498,
      "Var": 8499,
      "izz": 8500,
      "Connection": 8501,
      "ÐµÑģ": 8502,
      "iste": 8503,
      "Ġimportance": 8504,
      "Ġended": 8505,
      "Ġfans": 8506,
      "Ġowner": 8507,
      "Ġextended": 8508,
      "Ġrecords": 8509,
      "ĠURL": 8510,
      "ĠCas": 8511,
      "åĥ": 8512,
      "Header": 8513,
      "Ġrent": 8514,
      "ĠCopyright": 8515,
      "Ġfemale": 8516,
      "ĠÑĢÐµ": 8517,
      "message": 8518,
      "related": 8519,
      "sa": 8520,
      "----------------------------------------------------------------": 8521,
      "áº": 8522,
      "ĠProgram": 8523,
      "aria": 8524,
      "âĢ¦Ċ": 8525,
      "/r": 8526,
      "ĠCouncil": 8527,
      "Ġcluster": 8528,
      "irmed": 8529,
      "Ġmission": 8530,
      "Ġprotection": 8531,
      "Ġstructures": 8532,
      "';ĊĊ": 8533,
      "Ġefforts": 8534,
      "Ġcircum": 8535,
      "ĉint": 8536,
      "cz": 8537,
[...]
